{
  "version": "1.0",
  "truncation": null,
  "padding": null,
  "added_tokens": [
    {
      "id": 30000,
      "content": "\n",
      "single_word": false,
      "lstrip": false,
      "rstrip": false,
      "normalized": true,
      "special": false
    },
    {
      "id": 30001,
      "content": "\t",
      "single_word": false,
      "lstrip": false,
      "rstrip": false,
      "normalized": true,
      "special": false
    },
    {
      "id": 30002,
      "content": "!",
      "single_word": false,
      "lstrip": false,
      "rstrip": false,
      "normalized": true,
      "special": false
    }
  ],
  "normalizer": null,
  "pre_tokenizer": {
    "type": "Whitespace"
  },
  "post_processor": null,
  "decoder": null,
  "model": {
    "type": "WordPiece",
    "unk_token": "[UNK]",
    "continuing_subword_prefix": "##",
    "max_input_chars_per_word": 100,
    "vocab": {
      "": 0,
      "#": 1,
      "$": 2,
      "%": 3,
      "&": 4,
      "(": 5,
      ")": 6,
      "*": 7,
      "+": 8,
      ",": 9,
      "-": 10,
      ".": 11,
      "/": 12,
      "0": 13,
      "1": 14,
      "2": 15,
      "3": 16,
      "4": 17,
      "5": 18,
      "6": 19,
      "7": 20,
      "8": 21,
      "9": 22,
      ":": 23,
      ";": 24,
      "=": 25,
      "?": 26,
      "@": 27,
      "A": 28,
      "B": 29,
      "C": 30,
      "D": 31,
      "E": 32,
      "F": 33,
      "G": 34,
      "H": 35,
      "I": 36,
      "J": 37,
      "K": 38,
      "L": 39,
      "M": 40,
      "N": 41,
      "O": 42,
      "P": 43,
      "Q": 44,
      "R": 45,
      "S": 46,
      "T": 47,
      "U": 48,
      "V": 49,
      "W": 50,
      "X": 51,
      "Y": 52,
      "Z": 53,
      "[": 54,
      "\\": 55,
      "]": 56,
      "^": 57,
      "_": 58,
      "a": 59,
      "b": 60,
      "c": 61,
      "d": 62,
      "e": 63,
      "f": 64,
      "g": 65,
      "h": 66,
      "i": 67,
      "j": 68,
      "k": 69,
      "l": 70,
      "m": 71,
      "n": 72,
      "o": 73,
      "p": 74,
      "q": 75,
      "r": 76,
      "s": 77,
      "t": 78,
      "u": 79,
      "v": 80,
      "w": 81,
      "x": 82,
      "y": 83,
      "z": 84,
      "~": 85,
      "": 86,
      "£": 87,
      "¥": 88,
      "°": 89,
      "²": 90,
      "³": 91,
      "µ": 92,
      "º": 93,
      "½": 94,
      "À": 95,
      "Á": 96,
      "Ç": 97,
      "É": 98,
      "Ð": 99,
      "Ó": 100,
      "Ö": 101,
      "×": 102,
      "Ø": 103,
      "à": 104,
      "á": 105,
      "â": 106,
      "ã": 107,
      "ä": 108,
      "å": 109,
      "æ": 110,
      "ç": 111,
      "è": 112,
      "é": 113,
      "ê": 114,
      "ë": 115,
      "í": 116,
      "î": 117,
      "ï": 118,
      "ð": 119,
      "ñ": 120,
      "ò": 121,
      "ó": 122,
      "ô": 123,
      "õ": 124,
      "ö": 125,
      "÷": 126,
      "ø": 127,
      "ú": 128,
      "ü": 129,
      "ý": 130,
      "þ": 131,
      "ā": 132,
      "ă": 133,
      "ć": 134,
      "Č": 135,
      "č": 136,
      "Đ": 137,
      "đ": 138,
      "ē": 139,
      "ě": 140,
      "ğ": 141,
      "ī": 142,
      "İ": 143,
      "ı": 144,
      "ł": 145,
      "ń": 146,
      "ő": 147,
      "ř": 148,
      "Ş": 149,
      "ş": 150,
      "Š": 151,
      "š": 152,
      "ů": 153,
      "ż": 154,
      "ž": 155,
      "ș": 156,
      "ʻ": 157,
      "˚": 158,
      "μ": 159,
      "π": 160,
      "ँ": 161,
      "ं": 162,
      "अ": 163,
      "आ": 164,
      "इ": 165,
      "उ": 166,
      "ए": 167,
      "औ": 168,
      "क": 169,
      "ख": 170,
      "ग": 171,
      "च": 172,
      "ज": 173,
      "ट": 174,
      "ड": 175,
      "ढ": 176,
      "त": 177,
      "थ": 178,
      "द": 179,
      "न": 180,
      "प": 181,
      "फ": 182,
      "ब": 183,
      "भ": 184,
      "म": 185,
      "य": 186,
      "र": 187,
      "ल": 188,
      "व": 189,
      "श": 190,
      "ष": 191,
      "स": 192,
      "ह": 193,
      "़": 194,
      "ा": 195,
      "ि": 196,
      "ी": 197,
      "ु": 198,
      "ू": 199,
      "ृ": 200,
      "े": 201,
      "ै": 202,
      "ो": 203,
      "्": 204,
      "।": 205,
      "ễ": 206,
      "​": 207,
      "‎": 208,
      "‐": 209,
      "–": 210,
      "—": 211,
      "―": 212,
      "‘": 213,
      "’": 214,
      "“": 215,
      "”": 216,
      "…": 217,
      "‪": 218,
      "‬": 219,
      "€": 220,
      "₹": 221,
      "−": 222,
      "##e": 223,
      "##d": 224,
      "##u": 225,
      "##s": 226,
      "##k": 227,
      "##i": 228,
      "##l": 229,
      "##t": 230,
      "##r": 231,
      "##a": 232,
      "##o": 233,
      "##n": 234,
      "##B": 235,
      "##P": 236,
      "##h": 237,
      "##w": 238,
      "##y": 239,
      "##m": 240,
      "##v": 241,
      "##g": 242,
      "##V": 243,
      "##f": 244,
      "##c": 245,
      "##b": 246,
      "##q": 247,
      "##5": 248,
      "##4": 249,
      "##C": 250,
      "##p": 251,
      "##j": 252,
      "##U": 253,
      "##K": 254,
      "##.": 255,
      "##0": 256,
      "##7": 257,
      "##X": 258,
      "##x": 259,
      "##D": 260,
      "##G": 261,
      "##F": 262,
      "##H": 263,
      "##=": 264,
      "##9": 265,
      "##1": 266,
      "##8": 267,
      "##R": 268,
      "##é": 269,
      "##A": 270,
      "##2": 271,
      "##3": 272,
      "##6": 273,
      "##z": 274,
      "##N": 275,
      "##Q": 276,
      "##I": 277,
      "##T": 278,
      "##Y": 279,
      "##M": 280,
      "##S": 281,
      "##L": 282,
      "##º": 283,
      "##E": 284,
      "##O": 285,
      "##ा": 286,
      "##द": 287,
      "##व": 288,
      "##ï": 289,
      "##&": 290,
      "###": 291,
      "##?": 292,
      "##,": 293,
      "##W": 294,
      "##J": 295,
      "##á": 296,
      "##ä": 297,
      "##​": 298,
      "##ह": 299,
      "##ी": 300,
      "##*": 301,
      "##)": 302,
      "##Z": 303,
      "##ö": 304,
      "##ô": 305,
      "##“": 306,
      "##_": 307,
      "##ú": 308,
      "##!": 309,
      "##µ": 310,
      "##í": 311,
      "##ó": 312,
      "##ń": 313,
      "##े": 314,
      "##”": 315,
      "##़": 316,
      "##ु": 317,
      "##श": 318,
      "##्": 319,
      "##र": 320,
      "##ो": 321,
      "##ं": 322,
      "##ल": 323,
      "##’": 324,
      "##è": 325,
      "##स": 326,
      "##\\": 327,
      "##ć": 328,
      "##ड": 329,
      "##…": 330,
      "##@": 331,
      "##ã": 332,
      "##ž": 333,
      "##ि": 334,
      "##š": 335,
      "##ż": 336,
      "##ü": 337,
      "##ç": 338,
      "##₹": 339,
      "##;": 340,
      "##þ": 341,
      "##ł": 342,
      "##ő": 343,
      "##ê": 344,
      "##ष": 345,
      "##ट": 346,
      "##‎": 347,
      "##ë": 348,
      "##य": 349,
      "##त": 350,
      "##ñ": 351,
      "##ज": 352,
      "##ī": 353,
      "##:": 354,
      "##-": 355,
      "##(": 356,
      "##ø": 357,
      "##[": 358,
      "##æ": 359,
      "##/": 360,
      "##+": 361,
      "##î": 362,
      "##ă": 363,
      "##ग": 364,
      "##न": 365,
      "##ı": 366,
      "##ş": 367,
      "##č": 368,
      "##¥": 369,
      "##ै": 370,
      "##â": 371,
      "##$": 372,
      "##à": 373,
      "##ğ": 374,
      "##फ": 375,
      "##€": 376,
      "##ँ": 377,
      "##क": 378,
      "##ě": 379,
      "##म": 380,
      "##भ": 381,
      "##ए": 382,
      "##ý": 383,
      "##आ": 384,
      "##ब": 385,
      "##đ": 386,
      "##ā": 387,
      "##‘": 388,
      "##ʻ": 389,
      "##ò": 390,
      "##ů": 391,
      "##थ": 392,
      "##£": 393,
      "##ख": 394,
      "##ș": 395,
      "##−": 396,
      "##ē": 397,
      "##å": 398,
      "##ř": 399,
      "##ð": 400,
      "##ृ": 401,
      "##प": 402,
      "##ू": 403,
      "##ễ": 404,
      "##–": 405,
      "##õ": 406,
      "##÷": 407,
      "##he": 408,
      "##er": 409,
      "##in": 410,
      "##ed": 411,
      "the": 412,
      "##an": 413,
      "##es": 414,
      "##on": 415,
      "##or": 416,
      "##ar": 417,
      "##at": 418,
      "##en": 419,
      "&#": 420,
      "in": 421,
      "##al": 422,
      "##ing": 423,
      "##nd": 424,
      "##as": 425,
      "##is": 426,
      "to": 427,
      "##it": 428,
      "39": 429,
      "##il": 430,
      "of": 431,
      "##ic": 432,
      "##ur": 433,
      "##ion": 434,
      "##om": 435,
      "##id": 436,
      "##el": 437,
      "and": 438,
      "##ou": 439,
      "##ent": 440,
      "on": 441,
      "##ay": 442,
      "##ec": 443,
      "##et": 444,
      "##ir": 445,
      "##st": 446,
      "##ad": 447,
      "##am": 448,
      "##re": 449,
      "##ol": 450,
      "34": 451,
      "th": 452,
      "for": 453,
      "##ot": 454,
      "##ter": 455,
      "The": 456,
      "##ac": 457,
      "##ver": 458,
      "##le": 459,
      "##ts": 460,
      "##ly": 461,
      "re": 462,
      "##ve": 463,
      "st": 464,
      "be": 465,
      "##ill": 466,
      "##ro": 467,
      "##ig": 468,
      "##ation": 469,
      "##ak": 470,
      "has": 471,
      "##im": 472,
      "##ow": 473,
      "##ut": 474,
      "##est": 475,
      "is": 476,
      "##ia": 477,
      "that": 478,
      "wh": 479,
      "##ers": 480,
      "##ith": 481,
      "sa": 482,
      "an": 483,
      "al": 484,
      "Ind": 485,
      "by": 486,
      "##ear": 487,
      "##us": 488,
      "##em": 489,
      "##ra": 490,
      "was": 491,
      "at": 492,
      "##un": 493,
      "with": 494,
      "##and": 495,
      "said": 496,
      "as": 497,
      "##ted": 498,
      "##ce": 499,
      "##um": 500,
      "##ri": 501,
      "##por": 502,
      "##ch": 503,
      "##ess": 504,
      "com": 505,
      "##rom": 506,
      "##ab": 507,
      "##ld": 508,
      "##th": 509,
      "##ul": 510,
      "##op": 511,
      "##os": 512,
      "##ist": 513,
      "##ag": 514,
      "##od": 515,
      "from": 516,
      "##ain": 517,
      "##day": 518,
      "ac": 519,
      "##her": 520,
      "con": 521,
      "##ment": 522,
      "##ian": 523,
      "##art": 524,
      "##hi": 525,
      "##ate": 526,
      "20": 527,
      "##pp": 528,
      "will": 529,
      "##ore": 530,
      "##ect": 531,
      "de": 532,
      "##our": 533,
      "##ap": 534,
      "##ud": 535,
      "pro": 536,
      "ha": 537,
      "sh": 538,
      "##ies": 539,
      "India": 540,
      "af": 541,
      "cr": 542,
      "year": 543,
      "##end": 544,
      "##all": 545,
      "he": 546,
      "##ity": 547,
      "##oun": 548,
      "##00": 549,
      "##igh": 550,
      "##if": 551,
      "ad": 552,
      "ex": 553,
      "##ew": 554,
      "##iv": 555,
      "pl": 556,
      "##ong": 557,
      "after": 558,
      "his": 559,
      "##oc": 560,
      "##uc": 561,
      "##ich": 562,
      "go": 563,
      "##ial": 564,
      "have": 565,
      "##ack": 566,
      "##ost": 567,
      "##ice": 568,
      "it": 569,
      "not": 570,
      "Ch": 571,
      "##up": 572,
      "ag": 573,
      "201": 574,
      "ch": 575,
      "##ard": 576,
      "over": 577,
      "##&#": 578,
      "le": 579,
      "repor": 580,
      "##ound": 581,
      "fir": 582,
      "##ee": 583,
      "which": 584,
      "##og": 585,
      "comp": 586,
      "pr": 587,
      "its": 588,
      "Pr": 589,
      "##ive": 590,
      "##ok": 591,
      "##ide": 592,
      "##ust": 593,
      "##ord": 594,
      "off": 595,
      "##ik": 596,
      "##ber": 597,
      "Th": 598,
      "##ast": 599,
      "cl": 600,
      "##so": 601,
      "us": 602,
      "been": 603,
      "wor": 604,
      "##ated": 605,
      "sp": 606,
      "##mp": 607,
      "##ry": 608,
      "rec": 609,
      "tw": 610,
      "are": 611,
      "##ile": 612,
      "##oll": 613,
      "had": 614,
      "fil": 615,
      "##ere": 616,
      "##ary": 617,
      "##ue": 618,
      "##ang": 619,
      "se": 620,
      "ar": 621,
      "##li": 622,
      "##ub": 623,
      "also": 624,
      "##ther": 625,
      "inc": 626,
      "##ah": 627,
      "##ine": 628,
      "add": 629,
      "or": 630,
      "res": 631,
      "##che": 632,
      "##ress": 633,
      "were": 634,
      "up": 635,
      "##vern": 636,
      "##ank": 637,
      "##ased": 638,
      "US": 639,
      "who": 640,
      "##ell": 641,
      "##one": 642,
      ";.": 643,
      "In": 644,
      "##atur": 645,
      "##mer": 646,
      "Indian": 647,
      "##ele": 648,
      "en": 649,
      "##ail": 650,
      "##ister": 651,
      "##ould": 652,
      "##ident": 653,
      "##tion": 654,
      "first": 655,
      "##gh": 656,
      "##ant": 657,
      "tr": 658,
      "##aj": 659,
      "##av": 660,
      "film": 661,
      "app": 662,
      "##ous": 663,
      "##ace": 664,
      "##ight": 665,
      "##ick": 666,
      "acc": 667,
      "##ish": 668,
      "their": 669,
      "##qu": 670,
      "##ash": 671,
      "##vernment": 672,
      "Min": 673,
      "##ans": 674,
      "St": 675,
      "##ase": 676,
      "la": 677,
      "un": 678,
      "all": 679,
      "##ind": 680,
      "government": 681,
      "ab": 682,
      "Sh": 683,
      "##ake": 684,
      "##ob": 685,
      "again": 686,
      "##out": 687,
      "##illion": 688,
      "##esday": 689,
      "pe": 690,
      "##und": 691,
      "##ass": 692,
      "##ount": 693,
      "added": 694,
      "##ef": 695,
      "part": 696,
      "dis": 697,
      "can": 698,
      "sc": 699,
      "##ign": 700,
      "##ach": 701,
      "##man": 702,
      "crore": 703,
      "against": 704,
      "##ople": 705,
      "##ame": 706,
      "##ree": 707,
      "##ime": 708,
      "##ond": 709,
      "##eet": 710,
      "As": 711,
      "##ff": 712,
      "##ark": 713,
      ";,": 714,
      ",&#": 715,
      "##age": 716,
      "##ure": 717,
      "new": 718,
      "##pl": 719,
      "##ome": 720,
      "pol": 721,
      "##ug": 722,
      "##ep": 723,
      "her": 724,
      "000": 725,
      "##ens": 726,
      "##ations": 727,
      "##ions": 728,
      "people": 729,
      "reported": 730,
      "whe": 731,
      "##ai": 732,
      "##tor": 733,
      "int": 734,
      "##ting": 735,
      "Fr": 736,
      "Go": 737,
      "##ational": 738,
      "##ence": 739,
      "##old": 740,
      "out": 741,
      "att": 742,
      "Minister": 743,
      "##istan": 744,
      "##han": 745,
      "##esh": 746,
      "##ook": 747,
      "per": 748,
      "##iss": 749,
      "sec": 750,
      "##arg": 751,
      "##rou": 752,
      "##ade": 753,
      "##esident": 754,
      "##duc": 755,
      "Ac": 756,
      "Pak": 757,
      "ser": 758,
      "rele": 759,
      "##ets": 760,
      "car": 761,
      "op": 762,
      "##ays": 763,
      "two": 764,
      "##any": 765,
      "##vel": 766,
      "cont": 767,
      "offic": 768,
      "##for": 769,
      "te": 770,
      "An": 771,
      "am": 772,
      "hel": 773,
      "##ected": 774,
      "##ition": 775,
      "19": 776,
      "##uring": 777,
      "this": 778,
      "Del": 779,
      "Ar": 780,
      "##ged": 781,
      "##oin": 782,
      "##ates": 783,
      "Un": 784,
      "old": 785,
      "It": 786,
      "##lud": 787,
      "ne": 788,
      "Delhi": 789,
      "##ical": 790,
      "##ood": 791,
      "fe": 792,
      "##ual": 793,
      "##aim": 794,
      "##ump": 795,
      "inv": 796,
      "##port": 797,
      "reportedly": 798,
      "##ks": 799,
      "while": 800,
      "##oy": 801,
      "laun": 802,
      "el": 803,
      "play": 804,
      "He": 805,
      "ann": 806,
      "##ath": 807,
      "dec": 808,
      "President": 809,
      "##ie": 810,
      "years": 811,
      "##arli": 812,
      "Tr": 813,
      "includ": 814,
      "##ric": 815,
      "##ents": 816,
      "##ater": 817,
      "10": 818,
      "tra": 819,
      "##ike": 820,
      "Pakistan": 821,
      "lead": 822,
      "count": 823,
      "claim": 824,
      "##ance": 825,
      "##oh": 826,
      "##ched": 827,
      "##nder": 828,
      "##enc": 829,
      "##ors": 830,
      "Not": 831,
      "This": 832,
      "##own": 833,
      "##ised": 834,
      "##ild": 835,
      "##ning": 836,
      "##ip": 837,
      "su": 838,
      "one": 839,
      "##tern": 840,
      "##able": 841,
      "##eng": 842,
      "##akh": 843,
      "about": 844,
      "##amp": 845,
      "##ourt": 846,
      "##ating": 847,
      "wom": 848,
      "Re": 849,
      "star": 850,
      "man": 851,
      "we": 852,
      "##ite": 853,
      "Sing": 854,
      "##ved": 855,
      "##ove": 856,
      "cap": 857,
      "call": 858,
      "##se": 859,
      "##ib": 860,
      "bl": 861,
      "##ounc": 862,
      "##ideo": 863,
      "mon": 864,
      "Chin": 865,
      "exp": 866,
      "##iver": 867,
      "other": 868,
      "##air": 869,
      "##ose": 870,
      "co": 871,
      "##ording": 872,
      "min": 873,
      "##ward": 874,
      "state": 875,
      "##ata": 876,
      "##urs": 877,
      "during": 878,
      "official": 879,
      "Mon": 880,
      "based": 881,
      "world": 882,
      "##ft": 883,
      "under": 884,
      "##ven": 885,
      "Mod": 886,
      "##mit": 887,
      "##form": 888,
      "##are": 889,
      "##ral": 890,
      "##urther": 891,
      "##aw": 892,
      "time": 893,
      "##ock": 894,
      "##ably": 895,
      "she": 896,
      "ph": 897,
      "##ax": 898,
      "they": 899,
      "bec": 900,
      "##ned": 901,
      "win": 902,
      "##iday": 903,
      "elect": 904,
      "ter": 905,
      "##icket": 906,
      "##als": 907,
      "company": 908,
      "Notably": 909,
      "fl": 910,
      "found": 911,
      "show": 912,
      "reg": 913,
      ".&#": 914,
      "##rit": 915,
      "alle": 916,
      "##ied": 917,
      "million": 918,
      "post": 919,
      "work": 920,
      "would": 921,
      "tweet": 922,
      "dem": 923,
      "##oot": 924,
      "like": 925,
      "##ise": 926,
      "Friday": 927,
      "Modi": 928,
      "qu": 929,
      "featur": 930,
      "BJ": 931,
      "##ons": 932,
      "##urr": 933,
      "##ey": 934,
      "BJP": 935,
      "reports": 936,
      "into": 937,
      "start": 938,
      "##anc": 939,
      "med": 940,
      "##lic": 941,
      "##atch": 942,
      "##uss": 943,
      "##hief": 944,
      "being": 945,
      "Monday": 946,
      "##edn": 947,
      "Tu": 948,
      "##arlier": 949,
      "team": 950,
      "Trump": 951,
      "pre": 952,
      "made": 953,
      "him": 954,
      "Singh": 955,
      "##ely": 956,
      "##iz": 957,
      "video": 958,
      "##ory": 959,
      "lakh": 960,
      "Man": 961,
      "Wedn": 962,
      "Wednesday": 963,
      "##ma": 964,
      "three": 965,
      "fin": 966,
      "##ited": 967,
      "Cong": 968,
      "##ph": 969,
      "##ists": 970,
      "##ech": 971,
      "##der": 972,
      "##ollow": 973,
      "2016": 974,
      "Tuesday": 975,
      "##ities": 976,
      "##io": 977,
      "##ort": 978,
      "set": 979,
      "##ics": 980,
      "announc": 981,
      "them": 982,
      "kill": 983,
      "last": 984,
      "Mar": 985,
      "do": 986,
      "day": 987,
      "##ov": 988,
      "def": 989,
      "br": 990,
      "rem": 991,
      "Thurs": 992,
      "Thursday": 993,
      "bet": 994,
      "##ix": 995,
      "Wor": 996,
      "##har": 997,
      "##..": 998,
      "country": 999,
      "##ember": 1000,
      "##ement": 1001,
      "air": 1002,
      "when": 1003,
      "act": 1004,
      "Tw": 1005,
      "##act": 1006,
      "attack": 1007,
      "run": 1008,
      "##ently": 1009,
      "##hed": 1010,
      "ass": 1011,
      "month": 1012,
      "but": 1013,
      "police": 1014,
      "Al": 1015,
      "sm": 1016,
      "##we": 1017,
      "##fer": 1018,
      "PM": 1019,
      "bu": 1020,
      "##aking": 1021,
      "##ha": 1022,
      "##row": 1023,
      "second": 1024,
      "##ult": 1025,
      "released": 1026,
      "stud": 1027,
      "##ices": 1028,
      "most": 1029,
      "cons": 1030,
      "##velop": 1031,
      "##ats": 1032,
      "##land": 1033,
      "World": 1034,
      "##ss": 1035,
      "four": 1036,
      "##umb": 1037,
      "15": 1038,
      "...": 1039,
      "##ious": 1040,
      "##amil": 1041,
      "Satur": 1042,
      "##used": 1043,
      "more": 1044,
      "##med": 1045,
      "##ked": 1046,
      "##ince": 1047,
      "Raj": 1048,
      "##ower": 1049,
      "cre": 1050,
      "##rough": 1051,
      "around": 1052,
      "Saturday": 1053,
      "sup": 1054,
      "##olog": 1055,
      "200": 1056,
      "imp": 1057,
      "me": 1058,
      "than": 1059,
      "##ested": 1060,
      "##ital": 1061,
      "Congress": 1062,
      "##erson": 1063,
      "comes": 1064,
      "Com": 1065,
      "##eek": 1066,
      "##hip": 1067,
      "##ram": 1068,
      "alleged": 1069,
      "including": 1070,
      "Wh": 1071,
      "En": 1072,
      "help": 1073,
      "Af": 1074,
      "only": 1075,
      "ever": 1076,
      "Sund": 1077,
      "##ge": 1078,
      "billion": 1079,
      "##ya": 1080,
      "##miss": 1081,
      "iss": 1082,
      "##ally": 1083,
      "For": 1084,
      "ev": 1085,
      "##ran": 1086,
      "##urn": 1087,
      "New": 1088,
      "##tain": 1089,
      "China": 1090,
      "##adesh": 1091,
      "##ared": 1092,
      "follow": 1093,
      "##emb": 1094,
      "##les": 1095,
      "Aust": 1096,
      "##br": 1097,
      "serv": 1098,
      "Le": 1099,
      "Sunday": 1100,
      "##ife": 1101,
      "##ner": 1102,
      "##ings": 1103,
      "resp": 1104,
      "end": 1105,
      "so": 1106,
      "##way": 1107,
      "##pr": 1108,
      "##ency": 1109,
      "mark": 1110,
      "sur": 1111,
      "ind": 1112,
      "record": 1113,
      "##other": 1114,
      "##gan": 1115,
      "##led": 1116,
      "##eh": 1117,
      "women": 1118,
      "##ana": 1119,
      "announced": 1120,
      "im": 1121,
      "no": 1122,
      "##roup": 1123,
      "ra": 1124,
      "any": 1125,
      "##ross": 1126,
      "invest": 1127,
      "des": 1128,
      "12": 1129,
      "##ict": 1130,
      "##ror": 1131,
      "##ale": 1132,
      "pass": 1133,
      "Khan": 1134,
      "Austral": 1135,
      "ow": 1136,
      "##rib": 1137,
      "called": 1138,
      "develop": 1139,
      "plan": 1140,
      "prot": 1141,
      "Ass": 1142,
      "##oor": 1143,
      "dir": 1144,
      "##uk": 1145,
      "ret": 1146,
      "##ever": 1147,
      "##ublic": 1148,
      "claimed": 1149,
      "##outh": 1150,
      "inter": 1151,
      "##itter": 1152,
      "##ection": 1153,
      "##me": 1154,
      "prov": 1155,
      "##ute": 1156,
      "ban": 1157,
      "get": 1158,
      "##ween": 1159,
      "##ty": 1160,
      "party": 1161,
      "disc": 1162,
      "launched": 1163,
      "between": 1164,
      "rel": 1165,
      "##line": 1166,
      "##ters": 1167,
      "11": 1168,
      "produc": 1169,
      "##yst": 1170,
      "##lam": 1171,
      "##use": 1172,
      "##ool": 1173,
      "##let": 1174,
      "##its": 1175,
      "Ad": 1176,
      "CM": 1177,
      "##au": 1178,
      "Is": 1179,
      "##ector": 1180,
      "Sp": 1181,
      "##eral": 1182,
      "actor": 1183,
      "curr": 1184,
      "Twitter": 1185,
      "since": 1186,
      "bank": 1187,
      "##fore": 1188,
      "##elf": 1189,
      "##per": 1190,
      "##reat": 1191,
      "##ports": 1192,
      "##az": 1193,
      "100": 1194,
      "allow": 1195,
      "##over": 1196,
      "##ogle": 1197,
      "Air": 1198,
      "if": 1199,
      "str": 1200,
      "Test": 1201,
      "vis": 1202,
      "##ne": 1203,
      "startup": 1204,
      "##osed": 1205,
      "before": 1206,
      "fund": 1207,
      "##isation": 1208,
      "##oss": 1209,
      "##uary": 1210,
      "##ron": 1211,
      "five": 1212,
      "arr": 1213,
      "open": 1214,
      "Cent": 1215,
      "war": 1216,
      "trans": 1217,
      "25": 1218,
      "through": 1219,
      "##lymp": 1220,
      "Olymp": 1221,
      "##ote": 1222,
      "back": 1223,
      "Russ": 1224,
      "cricket": 1225,
      "Sw": 1226,
      "Google": 1227,
      "Bh": 1228,
      "Mah": 1229,
      "killed": 1230,
      "child": 1231,
      "nam": 1232,
      "##att": 1233,
      "pay": 1234,
      "##xt": 1235,
      "aut": 1236,
      "##ald": 1237,
      "kn": 1238,
      "##ough": 1239,
      "down": 1240,
      "##pt": 1241,
      "##ternational": 1242,
      "Acc": 1243,
      "2015": 1244,
      "Nar": 1245,
      "##ivers": 1246,
      "Am": 1247,
      "##ution": 1248,
      "Chief": 1249,
      "##meric": 1250,
      "Americ": 1251,
      "terror": 1252,
      "##oard": 1253,
      "##com": 1254,
      "##ms": 1255,
      "##endra": 1256,
      "take": 1257,
      "16": 1258,
      "Court": 1259,
      "ins": 1260,
      "users": 1261,
      "further": 1262,
      "##ision": 1263,
      "##ests": 1264,
      "met": 1265,
      "top": 1266,
      "leader": 1267,
      "match": 1268,
      "near": 1269,
      "18": 1270,
      "wr": 1271,
      "Eng": 1272,
      "##ches": 1273,
      "inst": 1274,
      "Pun": 1275,
      "could": 1276,
      "##ments": 1277,
      "asked": 1278,
      "##umbai": 1279,
      "should": 1280,
      "won": 1281,
      "case": 1282,
      "De": 1283,
      "##ilit": 1284,
      "used": 1285,
      "Pradesh": 1286,
      "make": 1287,
      "##echn": 1288,
      "50": 1289,
      "court": 1290,
      "##ese": 1291,
      "comm": 1292,
      "30": 1293,
      "former": 1294,
      "##BI": 1295,
      "tweeted": 1296,
      "##ures": 1297,
      "person": 1298,
      "fac": 1299,
      "##urity": 1300,
      "vi": 1301,
      "where": 1302,
      "Mumbai": 1303,
      "She": 1304,
      "##owever": 1305,
      "Gu": 1306,
      "##cess": 1307,
      "14": 1308,
      "law": 1309,
      "six": 1310,
      "high": 1311,
      "##tar": 1312,
      "##onald": 1313,
      "##eep": 1314,
      "##ism": 1315,
      "long": 1316,
      "dist": 1317,
      "##ani": 1318,
      "according": 1319,
      "##ex": 1320,
      "##ange": 1321,
      "dr": 1322,
      "earlier": 1323,
      "##kar": 1324,
      "officials": 1325,
      "13": 1326,
      "##wal": 1327,
      "cent": 1328,
      "there": 1329,
      "Kar": 1330,
      "dri": 1331,
      "##my": 1332,
      "del": 1333,
      "##ush": 1334,
      "det": 1335,
      "reve": 1336,
      "According": 1337,
      "##ung": 1338,
      "##ific": 1339,
      "##ery": 1340,
      "##hest": 1341,
      "##ire": 1342,
      "##vi": 1343,
      "poll": 1344,
      "##bs": 1345,
      "##vt": 1346,
      "##ull": 1347,
      "giv": 1348,
      "We": 1349,
      "Ex": 1350,
      "##ient": 1351,
      "oper": 1352,
      "group": 1353,
      "due": 1354,
      "##con": 1355,
      "17": 1356,
      "gl": 1357,
      "##ird": 1358,
      "##ving": 1359,
      "you": 1360,
      "App": 1361,
      "##istry": 1362,
      "sub": 1363,
      "##ink": 1364,
      "Par": 1365,
      "spe": 1366,
      "##ystem": 1367,
      "2017": 1368,
      "Sup": 1369,
      "bus": 1370,
      "hig": 1371,
      "500": 1372,
      "##ope": 1373,
      "release": 1374,
      "##oney": 1375,
      "##aker": 1376,
      "##ament": 1377,
      "##hes": 1378,
      "##aled": 1379,
      "ref": 1380,
      "##ody": 1381,
      "##mission": 1382,
      "ear": 1383,
      "camp": 1384,
      "now": 1385,
      "##els": 1386,
      "held": 1387,
      "##ured": 1388,
      "##ants": 1389,
      "order": 1390,
      "##res": 1391,
      "smart": 1392,
      "CE": 1393,
      "##ones": 1394,
      "##ren": 1395,
      "days": 1396,
      "##ton": 1397,
      "amp": 1398,
      "##ness": 1399,
      "##book": 1400,
      "num": 1401,
      "larg": 1402,
      "power": 1403,
      "charg": 1404,
      "##ology": 1405,
      "##lin": 1406,
      "##mir": 1407,
      "milit": 1408,
      "##ered": 1409,
      "coll": 1410,
      "##ars": 1411,
      "Further": 1412,
      "ca": 1413,
      "tax": 1414,
      "Shah": 1415,
      "sing": 1416,
      "##ole": 1417,
      "##na": 1418,
      "report": 1419,
      "Kash": 1420,
      "##la": 1421,
      "head": 1422,
      "Narendra": 1423,
      "sign": 1424,
      "##ours": 1425,
      "incre": 1426,
      "And": 1427,
      "tak": 1428,
      "##ending": 1429,
      "##coming": 1430,
      "free": 1431,
      "CEO": 1432,
      "dep": 1433,
      "expl": 1434,
      "bel": 1435,
      "##ands": 1436,
      "United": 1437,
      "##ys": 1438,
      "##hen": 1439,
      "scor": 1440,
      "National": 1441,
      "Jan": 1442,
      "UK": 1443,
      "appro": 1444,
      "##ouse": 1445,
      "across": 1446,
      "Beng": 1447,
      "##get": 1448,
      "##ility": 1449,
      "Bengal": 1450,
      "##ases": 1451,
      "miss": 1452,
      "week": 1453,
      "issu": 1454,
      "Kap": 1455,
      "Sam": 1456,
      "using": 1457,
      "next": 1458,
      "##ects": 1459,
      "##ries": 1460,
      "##ages": 1461,
      "##20": 1462,
      "##imes": 1463,
      "Pol": 1464,
      "Shar": 1465,
      "public": 1466,
      "##chool": 1467,
      "##ended": 1468,
      "upcoming": 1469,
      "system": 1470,
      "##ees": 1471,
      "accused": 1472,
      "Sy": 1473,
      "train": 1474,
      "water": 1475,
      "##jab": 1476,
      "##usp": 1477,
      "ext": 1478,
      "Ut": 1479,
      "par": 1480,
      "Face": 1481,
      "among": 1482,
      "number": 1483,
      "che": 1484,
      "named": 1485,
      "emp": 1486,
      "prom": 1487,
      "##umar": 1488,
      "death": 1489,
      "##orn": 1490,
      "inf": 1491,
      "song": 1492,
      "award": 1493,
      "##ible": 1494,
      "##ative": 1495,
      "##ama": 1496,
      "##irl": 1497,
      "##pped": 1498,
      "##ather": 1499,
      "Kashmir": 1500,
      "South": 1501,
      "stat": 1502,
      "Facebook": 1503,
      "Brit": 1504,
      "money": 1505,
      "series": 1506,
      "Sec": 1507,
      "##ights": 1508,
      "Mus": 1509,
      "some": 1510,
      "revealed": 1511,
      "arrested": 1512,
      "took": 1513,
      "contr": 1514,
      "May": 1515,
      "##uled": 1516,
      "following": 1517,
      "susp": 1518,
      "spec": 1519,
      "##adi": 1520,
      "However": 1521,
      "Act": 1522,
      "Apple": 1523,
      "mod": 1524,
      "techn": 1525,
      "##ave": 1526,
      "##ces": 1527,
      "security": 1528,
      "woman": 1529,
      "need": 1530,
      "poin": 1531,
      "meet": 1532,
      "prof": 1533,
      "polit": 1534,
      "##ij": 1535,
      "##ept": 1536,
      "conf": 1537,
      ").": 1538,
      "##iness": 1539,
      "Punjab": 1540,
      "av": 1541,
      "event": 1542,
      "loc": 1543,
      "##gest": 1544,
      "##uck": 1545,
      "##ising": 1546,
      "rece": 1547,
      "gr": 1548,
      "##ject": 1549,
      "##hers": 1550,
      "my": 1551,
      "join": 1552,
      "Earlier": 1553,
      "State": 1554,
      "list": 1555,
      "media": 1556,
      "##loy": 1557,
      "data": 1558,
      "##ti": 1559,
      "Donald": 1560,
      "gu": 1561,
      "red": 1562,
      "launch": 1563,
      "##eal": 1564,
      "##oad": 1565,
      "phot": 1566,
      "every": 1567,
      "##ork": 1568,
      "third": 1569,
      "##ret": 1570,
      "##ified": 1571,
      "highest": 1572,
      "Uttar": 1573,
      "##ley": 1574,
      "##red": 1575,
      "organ": 1576,
      "American": 1577,
      "famil": 1578,
      "##tions": 1579,
      "##hor": 1580,
      "Mad": 1581,
      "Centre": 1582,
      "leg": 1583,
      "hum": 1584,
      "mar": 1585,
      "cor": 1586,
      "recently": 1587,
      "##aid": 1588,
      "demon": 1589,
      "don": 1590,
      "Gand": 1591,
      "inj": 1592,
      "move": 1593,
      "deal": 1594,
      "##ajor": 1595,
      "Union": 1596,
      "##ple": 1597,
      "##erv": 1598,
      "##aying": 1599,
      "##earch": 1600,
      "led": 1601,
      "##sc": 1602,
      "##ury": 1603,
      "##ired": 1604,
      "##oth": 1605,
      "foot": 1606,
      "21": 1607,
      "Australia": 1608,
      "##augh": 1609,
      "Kumar": 1610,
      "##to": 1611,
      "##cer": 1612,
      "##tal": 1613,
      "##conom": 1614,
      "Ab": 1615,
      "##apan": 1616,
      "prob": 1617,
      "##ives": 1618,
      "such": 1619,
      "along": 1620,
      "##ival": 1621,
      "pri": 1622,
      "user": 1623,
      "grow": 1624,
      "##ering": 1625,
      "worth": 1626,
      "Japan": 1627,
      "##ati": 1628,
      "##atter": 1629,
      "ball": 1630,
      "##ling": 1631,
      "own": 1632,
      "Gandhi": 1633,
      "net": 1634,
      "),": 1635,
      "big": 1636,
      "school": 1637,
      "deb": 1638,
      "read": 1639,
      "prev": 1640,
      "did": 1641,
      "dif": 1642,
      "##ena": 1643,
      "pres": 1644,
      "Bank": 1645,
      "hit": 1646,
      "const": 1647,
      "Sa": 1648,
      "cover": 1649,
      "city": 1650,
      "##ided": 1651,
      "Dec": 1652,
      "look": 1653,
      "bre": 1654,
      "##alk": 1655,
      "Actor": 1656,
      "id": 1657,
      "##ier": 1658,
      "##amm": 1659,
      "cost": 1660,
      "##arty": 1661,
      "use": 1662,
      "same": 1663,
      "tit": 1664,
      "##obal": 1665,
      "##ruc": 1666,
      "##CC": 1667,
      "chief": 1668,
      "national": 1669,
      "##rik": 1670,
      "notes": 1671,
      "build": 1672,
      "major": 1673,
      "ent": 1674,
      "Bar": 1675,
      "children": 1676,
      "##olly": 1677,
      "24": 1678,
      "features": 1679,
      "far": 1680,
      "Dir": 1681,
      "employ": 1682,
      "Rah": 1683,
      "life": 1684,
      "England": 1685,
      "Prime": 1686,
      "soc": 1687,
      "art": 1688,
      "March": 1689,
      "Ger": 1690,
      "dev": 1691,
      "##ffic": 1692,
      "Rio": 1693,
      "rest": 1694,
      "book": 1695,
      "##ball": 1696,
      "##osp": 1697,
      "cle": 1698,
      "##ises": 1699,
      "##omb": 1700,
      "starr": 1701,
      "##ason": 1702,
      "##alth": 1703,
      "demand": 1704,
      "##tra": 1705,
      "##reen": 1706,
      "##uts": 1707,
      "##ular": 1708,
      "##ague": 1709,
      "girl": 1710,
      "sold": 1711,
      "El": 1712,
      "Eur": 1713,
      "IS": 1714,
      "cele": 1715,
      "students": 1716,
      "may": 1717,
      "MP": 1718,
      "##adav": 1719,
      "Dh": 1720,
      "##wood": 1721,
      "##ful": 1722,
      "sent": 1723,
      "tri": 1724,
      "viol": 1725,
      "men": 1726,
      "Day": 1727,
      "largest": 1728,
      "sl": 1729,
      "##gy": 1730,
      "##rict": 1731,
      "months": 1732,
      "Me": 1733,
      "prop": 1734,
      "##ator": 1735,
      "##ways": 1736,
      "gen": 1737,
      "##embly": 1738,
      "Sc": 1739,
      "final": 1740,
      "shar": 1741,
      "2014": 1742,
      "Yadav": 1743,
      "##ims": 1744,
      "On": 1745,
      "hold": 1746,
      "form": 1747,
      "##ler": 1748,
      "Ke": 1749,
      "Res": 1750,
      "Nad": 1751,
      "requ": 1752,
      "Vir": 1753,
      "Former": 1754,
      "##ived": 1755,
      "demonet": 1756,
      "Cr": 1757,
      "making": 1758,
      "sw": 1759,
      "allegedly": 1760,
      "captain": 1761,
      "##iversity": 1762,
      "service": 1763,
      "Koh": 1764,
      "##uly": 1765,
      "hand": 1766,
      "##ames": 1767,
      "sk": 1768,
      "Pre": 1769,
      "sol": 1770,
      "##reme": 1771,
      "##riend": 1772,
      "today": 1773,
      "At": 1774,
      "Sal": 1775,
      "cust": 1776,
      "##ines": 1777,
      "##ollywood": 1778,
      "bo": 1779,
      "let": 1780,
      "val": 1781,
      "become": 1782,
      "West": 1783,
      "Kapoor": 1784,
      "German": 1785,
      "business": 1786,
      "firm": 1787,
      "##ains": 1788,
      "aff": 1789,
      "Ak": 1790,
      "Co": 1791,
      "##ria": 1792,
      "Police": 1793,
      "gold": 1794,
      "online": 1795,
      "Hind": 1796,
      "least": 1797,
      "sched": 1798,
      "##obile": 1799,
      "##aign": 1800,
      "eng": 1801,
      "fail": 1802,
      "##arter": 1803,
      "##ala": 1804,
      "Chinese": 1805,
      "Con": 1806,
      "inform": 1807,
      "Fe": 1808,
      "##isc": 1809,
      "body": 1810,
      "defe": 1811,
      "40": 1812,
      "home": 1813,
      "##hil": 1814,
      "Ram": 1815,
      "support": 1816,
      "Islam": 1817,
      "Russia": 1818,
      "Ministry": 1819,
      "UN": 1820,
      "complet": 1821,
      "total": 1822,
      "Tamil": 1823,
      "actress": 1824,
      "Har": 1825,
      "Kohli": 1826,
      "UP": 1827,
      "without": 1828,
      "##ender": 1829,
      "elections": 1830,
      "Pat": 1831,
      "test": 1832,
      "##une": 1833,
      "others": 1834,
      "campaign": 1835,
      "##irth": 1836,
      "##abad": 1837,
      "##atform": 1838,
      "##ained": 1839,
      "col": 1840,
      "##uru": 1841,
      "##wards": 1842,
      "activ": 1843,
      "smartph": 1844,
      "##earc": 1845,
      "market": 1846,
      "##rup": 1847,
      "##uch": 1848,
      "##ought": 1849,
      "Sept": 1850,
      "em": 1851,
      "##ves": 1852,
      "platform": 1853,
      "##aur": 1854,
      "Joh": 1855,
      "taken": 1856,
      "January": 1857,
      "December": 1858,
      "does": 1859,
      "just": 1860,
      "International": 1861,
      "Olympics": 1862,
      "adv": 1863,
      "##min": 1864,
      "how": 1865,
      "sal": 1866,
      "tem": 1867,
      "##ior": 1868,
      "##artment": 1869,
      "Kore": 1870,
      "differ": 1871,
      "##ides": 1872,
      "##mber": 1873,
      "##ert": 1874,
      "Nor": 1875,
      "Mal": 1876,
      "##war": 1877,
      "celebr": 1878,
      "sever": 1879,
      "BS": 1880,
      "##ovember": 1881,
      "November": 1882,
      "Pri": 1883,
      "visit": 1884,
      "claims": 1885,
      "minute": 1886,
      "Supreme": 1887,
      "Tata": 1888,
      "##icip": 1889,
      "##ration": 1890,
      "init": 1891,
      "game": 1892,
      "##ished": 1893,
      "design": 1894,
      "commit": 1895,
      "##anka": 1896,
      "away": 1897,
      "strik": 1898,
      "family": 1899,
      "##iel": 1900,
      "##ait": 1901,
      "sex": 1902,
      "countries": 1903,
      "est": 1904,
      "Pl": 1905,
      "even": 1906,
      "##te": 1907,
      "eff": 1908,
      "##embers": 1909,
      "real": 1910,
      "Mahar": 1911,
      "September": 1912,
      "issue": 1913,
      "human": 1914,
      "22": 1915,
      "##af": 1916,
      "##read": 1917,
      "econom": 1918,
      "Bang": 1919,
      "pict": 1920,
      "High": 1921,
      "equ": 1922,
      "doc": 1923,
      "##arat": 1924,
      "rep": 1925,
      "conn": 1926,
      "##rain": 1927,
      "place": 1928,
      "player": 1929,
      "While": 1930,
      "later": 1931,
      "scheduled": 1932,
      "##iance": 1933,
      "host": 1934,
      "vill": 1935,
      "polic": 1936,
      "each": 1937,
      "contin": 1938,
      "given": 1939,
      "Apr": 1940,
      "##ison": 1941,
      "char": 1942,
      "runs": 1943,
      "points": 1944,
      "Fin": 1945,
      "our": 1946,
      "cash": 1947,
      "name": 1948,
      "##oo": 1949,
      "You": 1950,
      "Australian": 1951,
      "Bl": 1952,
      "appoin": 1953,
      "Be": 1954,
      "##ashtra": 1955,
      "register": 1956,
      "decl": 1957,
      "##ench": 1958,
      "stop": 1959,
      "demonetisation": 1960,
      "##go": 1961,
      "##omin": 1962,
      "##ogra": 1963,
      "##view": 1964,
      "mov": 1965,
      "##ene": 1966,
      "started": 1967,
      "Bi": 1968,
      "Oc": 1969,
      "##earchers": 1970,
      "Pro": 1971,
      "Son": 1972,
      "vot": 1973,
      "Ran": 1974,
      "sell": 1975,
      "level": 1976,
      "##oon": 1977,
      "members": 1978,
      "23": 1979,
      "##ause": 1980,
      "April": 1981,
      "Assembly": 1982,
      "##osition": 1983,
      "##akes": 1984,
      "den": 1985,
      "##icro": 1986,
      "starrer": 1987,
      "states": 1988,
      "##oci": 1989,
      "decision": 1990,
      "technology": 1991,
      "commun": 1992,
      "land": 1993,
      "rank": 1994,
      "##oub": 1995,
      "hal": 1996,
      "conduc": 1997,
      "##ecut": 1998,
      "Ag": 1999,
      "see": 2000,
      "quarter": 2001,
      "hear": 2002,
      "Party": 2003,
      "##arliament": 2004,
      "black": 2005,
      "district": 2006,
      "Se": 2007,
      "social": 2008,
      "##ali": 2009,
      "##gr": 2010,
      "British": 2011,
      "Febr": 2012,
      "February": 2013,
      "dead": 2014,
      "birth": 2015,
      "came": 2016,
      "scored": 2017,
      "##omet": 2018,
      "199": 2019,
      "AI": 2020,
      "shows": 2021,
      "1st": 2022,
      "raised": 2023,
      "Rahul": 2024,
      "Europe": 2025,
      "come": 2026,
      "sug": 2027,
      "govt": 2028,
      "League": 2029,
      "incident": 2030,
      "27": 2031,
      "seen": 2032,
      "feature": 2033,
      "lost": 2034,
      "custom": 2035,
      "##app": 2036,
      "##vers": 2037,
      "reac": 2038,
      "##raw": 2039,
      "##ehic": 2040,
      "26": 2041,
      "Can": 2042,
      "##aks": 2043,
      "##DI": 2044,
      "Pakistani": 2045,
      "##pur": 2046,
      "Maharashtra": 2047,
      "No": 2048,
      "international": 2049,
      "compl": 2050,
      "what": 2051,
      "##airman": 2052,
      "study": 2053,
      "##AP": 2054,
      "prog": 2055,
      "food": 2056,
      "hours": 2057,
      "##aly": 2058,
      "stated": 2059,
      "il": 2060,
      "##order": 2061,
      "deliver": 2062,
      "35": 2063,
      "##ina": 2064,
      "Commission": 2065,
      "Actress": 2066,
      "avail": 2067,
      "tour": 2068,
      "invol": 2069,
      "Br": 2070,
      "role": 2071,
      "##idd": 2072,
      "services": 2073,
      "wrote": 2074,
      "##ika": 2075,
      "##veil": 2076,
      "##rop": 2077,
      "best": 2078,
      "##ientists": 2079,
      "global": 2080,
      "targ": 2081,
      "##cc": 2082,
      "another": 2083,
      "developed": 2084,
      "known": 2085,
      "Army": 2086,
      "good": 2087,
      "enter": 2088,
      "then": 2089,
      "##ots": 2090,
      "unveil": 2091,
      "Nadu": 2092,
      "##anies": 2093,
      "##ession": 2094,
      "ML": 2095,
      "##ced": 2096,
      "Sn": 2097,
      "After": 2098,
      "##jri": 2099,
      "cond": 2100,
      "##rying": 2101,
      "bro": 2102,
      "##iler": 2103,
      "They": 2104,
      "many": 2105,
      "round": 2106,
      "##ickets": 2107,
      "##amer": 2108,
      "28": 2109,
      "hist": 2110,
      "##head": 2111,
      "beh": 2112,
      "##jriwal": 2113,
      "Aug": 2114,
      "Found": 2115,
      "son": 2116,
      "ago": 2117,
      "San": 2118,
      "Bihar": 2119,
      "June": 2120,
      "Cup": 2121,
      "crit": 2122,
      "Guj": 2123,
      "Shi": 2124,
      "loss": 2125,
      "self": 2126,
      "because": 2127,
      "##ten": 2128,
      "Kejriwal": 2129,
      "60": 2130,
      "Jay": 2131,
      "ur": 2132,
      "Cl": 2133,
      "ap": 2134,
      "##rab": 2135,
      "University": 2136,
      "##ta": 2137,
      "##raft": 2138,
      "working": 2139,
      "July": 2140,
      "cand": 2141,
      "var": 2142,
      "created": 2143,
      "nearly": 2144,
      "bow": 2145,
      "filed": 2146,
      "Musl": 2147,
      "Russian": 2148,
      "War": 2149,
      "vehic": 2150,
      "seven": 2151,
      "amid": 2152,
      "Tur": 2153,
      "##uf": 2154,
      "saying": 2155,
      "##inal": 2156,
      "respect": 2157,
      "sit": 2158,
      "##utes": 2159,
      "several": 2160,
      "anti": 2161,
      "Afric": 2162,
      "##overed": 2163,
      "T20": 2164,
      "Olympic": 2165,
      "opp": 2166,
      "occ": 2167,
      "pop": 2168,
      "##urned": 2169,
      "suc": 2170,
      "times": 2171,
      "capital": 2172,
      "author": 2173,
      "mobile": 2174,
      "process": 2175,
      "##ively": 2176,
      "##reed": 2177,
      "Gen": 2178,
      "companies": 2179,
      "##ield": 2180,
      "##ka": 2181,
      "##yc": 2182,
      "Secret": 2183,
      "##ourn": 2184,
      "##hu": 2185,
      "##tober": 2186,
      "ten": 2187,
      "##ukh": 2188,
      "MLA": 2189,
      "IP": 2190,
      "##iod": 2191,
      "Salman": 2192,
      "low": 2193,
      "##par": 2194,
      "##ried": 2195,
      "became": 2196,
      "Sharma": 2197,
      "All": 2198,
      "both": 2199,
      "wife": 2200,
      "non": 2201,
      "repl": 2202,
      "AAP": 2203,
      "##uce": 2204,
      "##ape": 2205,
      "Ali": 2206,
      "##ience": 2207,
      "##ns": 2208,
      "October": 2209,
      "within": 2210,
      "previous": 2211,
      "put": 2212,
      "##ger": 2213,
      "fire": 2214,
      "drug": 2215,
      "biggest": 2216,
      "mus": 2217,
      "forces": 2218,
      "August": 2219,
      ",”": 2220,
      "##ampions": 2221,
      "received": 2222,
      "Iran": 2223,
      "job": 2224,
      "these": 2225,
      "action": 2226,
      "shared": 2227,
      "##ops": 2228,
      "track": 2229,
      "NA": 2230,
      "seek": 2231,
      "political": 2232,
      "##ying": 2233,
      "##ivil": 2234,
      "##gin": 2235,
      "belie": 2236,
      "fight": 2237,
      "##iving": 2238,
      "##nel": 2239,
      "##ilt": 2240,
      "ended": 2241,
      "leaders": 2242,
      "issued": 2243,
      "Dep": 2244,
      "One": 2245,
      "project": 2246,
      "give": 2247,
      "enc": 2248,
      "Bengaluru": 2249,
      "boy": 2250,
      "jud": 2251,
      "##uty": 2252,
      "port": 2253,
      "military": 2254,
      "Ob": 2255,
      "face": 2256,
      "##ners": 2257,
      "##ues": 2258,
      "Uber": 2259,
      "##ane": 2260,
      "##ually": 2261,
      "till": 2262,
      "##ported": 2263,
      "care": 2264,
      "##erala": 2265,
      "Kerala": 2266,
      "Or": 2267,
      "got": 2268,
      "intro": 2269,
      "Islamic": 2270,
      "RBI": 2271,
      "ed": 2272,
      "short": 2273,
      "acqu": 2274,
      "banks": 2275,
      "##estival": 2276,
      "shoot": 2277,
      "appear": 2278,
      "wear": 2279,
      "##ium": 2280,
      "##ze": 2281,
      "##SA": 2282,
      "##edd": 2283,
      "compet": 2284,
      "II": 2285,
      "rev": 2286,
      "##ards": 2287,
      "football": 2288,
      "friend": 2289,
      "##aced": 2290,
      "eight": 2291,
      "taking": 2292,
      "founder": 2293,
      "##tee": 2294,
      "stand": 2295,
      "Chr": 2296,
      "Bra": 2297,
      "happ": 2298,
      "##icide": 2299,
      "hosp": 2300,
      "##ention": 2301,
      "##ondon": 2302,
      "Turk": 2303,
      "growth": 2304,
      "funding": 2305,
      "candid": 2306,
      "##ams": 2307,
      "##ging": 2308,
      "Gujarat": 2309,
      "period": 2310,
      "currently": 2311,
      "target": 2312,
      "##ounts": 2313,
      "London": 2314,
      "priv": 2315,
      "Govt": 2316,
      "displ": 2317,
      "Ash": 2318,
      "cit": 2319,
      "cou": 2320,
      "##ges": 2321,
      "left": 2322,
      "pet": 2323,
      "ODI": 2324,
      "special": 2325,
      "Sab": 2326,
      "mag": 2327,
      "plans": 2328,
      "ob": 2329,
      "##ators": 2330,
      "Hy": 2331,
      "doub": 2332,
      "##ians": 2333,
      "##lish": 2334,
      "##hile": 2335,
      "board": 2336,
      "##ufact": 2337,
      "##iqu": 2338,
      "those": 2339,
      "Rail": 2340,
      "season": 2341,
      "account": 2342,
      "Parliament": 2343,
      "SC": 2344,
      "manag": 2345,
      "indust": 2346,
      "phone": 2347,
      "##ada": 2348,
      "29": 2349,
      "emer": 2350,
      "##while": 2351,
      "Inst": 2352,
      "Jamm": 2353,
      "attem": 2354,
      "Sun": 2355,
      "financ": 2356,
      "quest": 2357,
      "Fil": 2358,
      "particip": 2359,
      "statement": 2360,
      "pat": 2361,
      "##oom": 2362,
      "Chairman": 2363,
      "half": 2364,
      "fem": 2365,
      "shot": 2366,
      "consid": 2367,
      "different": 2368,
      "##vert": 2369,
      "31": 2370,
      "iP": 2371,
      "investig": 2372,
      "polls": 2373,
      "available": 2374,
      "area": 2375,
      "sim": 2376,
      "##aka": 2377,
      "posted": 2378,
      "General": 2379,
      "president": 2380,
      "injured": 2381,
      "slam": 2382,
      "share": 2383,
      "launches": 2384,
      "passeng": 2385,
      "employees": 2386,
      "##ode": 2387,
      "##ails": 2388,
      "Obama": 2389,
      "Ra": 2390,
      "cut": 2391,
      "fall": 2392,
      "recent": 2393,
      "protest": 2394,
      "light": 2395,
      "##nings": 2396,
      "##ony": 2397,
      "##uted": 2398,
      "Mean": 2399,
      "threat": 2400,
      "##eign": 2401,
      "##tle": 2402,
      "provide": 2403,
      "direct": 2404,
      "ident": 2405,
      "Kh": 2406,
      "house": 2407,
      "qual": 2408,
      "well": 2409,
      "information": 2410,
      "##amb": 2411,
      "concer": 2412,
      "played": 2413,
      "meeting": 2414,
      "playing": 2415,
      "died": 2416,
      "very": 2417,
      "engine": 2418,
      "lim": 2419,
      "##rian": 2420,
      "Meanwhile": 2421,
      "Bollywood": 2422,
      "present": 2423,
      "##mar": 2424,
      "stor": 2425,
      "space": 2426,
      "single": 2427,
      "charac": 2428,
      "##oni": 2429,
      "##uation": 2430,
      "##eration": 2431,
      "With": 2432,
      "##ety": 2433,
      "##udd": 2434,
      "##udget": 2435,
      "##lear": 2436,
      "Secretary": 2437,
      "##ature": 2438,
      "main": 2439,
      "##arth": 2440,
      "players": 2441,
      "manufact": 2442,
      "North": 2443,
      "writ": 2444,
      "past": 2445,
      "road": 2446,
      "##aff": 2447,
      "My": 2448,
      "Pan": 2449,
      "find": 2450,
      "commer": 2451,
      "French": 2452,
      "##ograph": 2453,
      "nor": 2454,
      "minister": 2455,
      "camer": 2456,
      "says": 2457,
      "##udi": 2458,
      "orig": 2459,
      "attacks": 2460,
      "smartphone": 2461,
      "2013": 2462,
      "Jammu": 2463,
      "directed": 2464,
      "lit": 2465,
      "##sh": 2466,
      "Report": 2467,
      "increase": 2468,
      "rul": 2469,
      "##ened": 2470,
      "class": 2471,
      "##zon": 2472,
      "webs": 2473,
      "Ama": 2474,
      "yr": 2475,
      "researchers": 2476,
      "Arun": 2477,
      "medal": 2478,
      "cricketer": 2479,
      "hot": 2480,
      "expected": 2481,
      "Bangl": 2482,
      "##ids": 2483,
      "confir": 2484,
      "Sm": 2485,
      "##jects": 2486,
      "##ster": 2487,
      "trad": 2488,
      "lo": 2489,
      "##ued": 2490,
      "##que": 2491,
      "70": 2492,
      "Pe": 2493,
      "cases": 2494,
      "right": 2495,
      "pan": 2496,
      "##ounter": 2497,
      "success": 2498,
      "rob": 2499,
      "exper": 2500,
      "history": 2501,
      "45": 2502,
      "flight": 2503,
      "##omm": 2504,
      "initi": 2505,
      "Vij": 2506,
      "cer": 2507,
      "office": 2508,
      "##aster": 2509,
      "program": 2510,
      "##atic": 2511,
      "news": 2512,
      "suicide": 2513,
      "border": 2514,
      "36": 2515,
      "member": 2516,
      "##rid": 2517,
      "##cept": 2518,
      "intern": 2519,
      "gets": 2520,
      "##ara": 2521,
      "include": 2522,
      "currency": 2523,
      "States": 2524,
      "Korea": 2525,
      "##ware": 2526,
      "Shiv": 2527,
      "Te": 2528,
      "hack": 2529,
      "##lip": 2530,
      ".\\": 2531,
      "nation": 2532,
      "##tory": 2533,
      "##uclear": 2534,
      "Goa": 2535,
      "##itness": 2536,
      "##osing": 2537,
      "passed": 2538,
      "300": 2539,
      "bar": 2540,
      "##enal": 2541,
      "##ural": 2542,
      "health": 2543,
      "access": 2544,
      "Ser": 2545,
      "##aughter": 2546,
      "fun": 2547,
      "##maker": 2548,
      "##ized": 2549,
      "vir": 2550,
      "iPh": 2551,
      "##atory": 2552,
      "Dhoni": 2553,
      "trailer": 2554,
      "##iers": 2555,
      "##airs": 2556,
      "##CCI": 2557,
      "mat": 2558,
      "##gn": 2559,
      "decided": 2560,
      "saf": 2561,
      "prin": 2562,
      "Amazon": 2563,
      "##ergy": 2564,
      "##ressed": 2565,
      "films": 2566,
      "##ically": 2567,
      "critic": 2568,
      "Sur": 2569,
      "mess": 2570,
      "##enior": 2571,
      "spot": 2572,
      "Gl": 2573,
      "dig": 2574,
      "bill": 2575,
      "sens": 2576,
      "##cel": 2577,
      "price": 2578,
      "Ma": 2579,
      "Op": 2580,
      "rights": 2581,
      "foreign": 2582,
      "shares": 2583,
      "perform": 2584,
      "##uel": 2585,
      "tweets": 2586,
      "return": 2587,
      "speed": 2588,
      "profit": 2589,
      "Rep": 2590,
      "##ghan": 2591,
      "complain": 2592,
      "Sri": 2593,
      "bomb": 2594,
      "less": 2595,
      "##ows": 2596,
      "Snap": 2597,
      "introduc": 2598,
      "BCCI": 2599,
      "debut": 2600,
      "FI": 2601,
      "father": 2602,
      "There": 2603,
      "##acy": 2604,
      "view": 2605,
      "bas": 2606,
      "journ": 2607,
      "TV": 2608,
      "ahead": 2609,
      "Karn": 2610,
      "Tel": 2611,
      "Micro": 2612,
      "##iger": 2613,
      "Finance": 2614,
      "behind": 2615,
      "kil": 2616,
      "keep": 2617,
      "poss": 2618,
      "sector": 2619,
      "##IS": 2620,
      "##ube": 2621,
      "respons": 2622,
      "banned": 2623,
      "oil": 2624,
      "declared": 2625,
      "sche": 2626,
      "winning": 2627,
      "electric": 2628,
      "nomin": 2629,
      "stre": 2630,
      "brand": 2631,
      "way": 2632,
      "##ipp": 2633,
      "Sams": 2634,
      "Virat": 2635,
      "financial": 2636,
      "Rec": 2637,
      "##oved": 2638,
      "close": 2639,
      "paid": 2640,
      "##okes": 2641,
      "##mitted": 2642,
      "create": 2643,
      "##ecutive": 2644,
      "Film": 2645,
      "Col": 2646,
      "##ashion": 2647,
      "probe": 2648,
      "policy": 2649,
      "32": 2650,
      "80": 2651,
      "##idence": 2652,
      "fast": 2653,
      "want": 2654,
      "##itions": 2655,
      "begin": 2656,
      "##ateg": 2657,
      "##vernor": 2658,
      "Will": 2659,
      "##elled": 2660,
      "##work": 2661,
      "##going": 2662,
      "private": 2663,
      "female": 2664,
      "Earth": 2665,
      "##jay": 2666,
      "##ends": 2667,
      "registered": 2668,
      "If": 2669,
      "##ari": 2670,
      "198": 2671,
      "Az": 2672,
      "##yp": 2673,
      "tourn": 2674,
      "fourth": 2675,
      "Amit": 2676,
      "outs": 2677,
      "pur": 2678,
      "##uit": 2679,
      "refer": 2680,
      "Board": 2681,
      "Chand": 2682,
      "cann": 2683,
      "director": 2684,
      "Samsung": 2685,
      "makes": 2686,
      "suff": 2687,
      "Sach": 2688,
      "accounts": 2689,
      "Wom": 2690,
      "bi": 2691,
      "bats": 2692,
      "mur": 2693,
      "hospital": 2694,
      "Ph": 2695,
      "tal": 2696,
      "current": 2697,
      "Afghan": 2698,
      "Group": 2699,
      "change": 2700,
      "##ture": 2701,
      "##rol": 2702,
      "##ination": 2703,
      "discuss": 2704,
      "##aa": 2705,
      "##ately": 2706,
      "cars": 2707,
      "election": 2708,
      "Priy": 2709,
      "##ule": 2710,
      "device": 2711,
      "Open": 2712,
      "Pay": 2713,
      "went": 2714,
      "amount": 2715,
      "Che": 2716,
      "vict": 2717,
      "music": 2718,
      "Sabha": 2719,
      "Just": 2720,
      "##ming": 2721,
      "##roid": 2722,
      "age": 2723,
      "buy": 2724,
      "personal": 2725,
      "live": 2726,
      "sports": 2727,
      "Hary": 2728,
      "dest": 2729,
      "##iant": 2730,
      "chang": 2731,
      "better": 2732,
      "European": 2733,
      "Moh": 2734,
      "turn": 2735,
      "resign": 2736,
      "Rel": 2737,
      "rate": 2738,
      "##leg": 2739,
      "Syria": 2740,
      "2012": 2741,
      "built": 2742,
      "title": 2743,
      "Haryana": 2744,
      "90": 2745,
      "##oud": 2746,
      "must": 2747,
      "NASA": 2748,
      "Bangladesh": 2749,
      "York": 2750,
      "##uter": 2751,
      "##venue": 2752,
      "##jee": 2753,
      "workers": 2754,
      "various": 2755,
      "Over": 2756,
      "##aul": 2757,
      "civil": 2758,
      "di": 2759,
      "km": 2760,
      "never": 2761,
      "featured": 2762,
      "Dal": 2763,
      "##ke": 2764,
      "##iding": 2765,
      "##ude": 2766,
      "region": 2767,
      "City": 2768,
      "jail": 2769,
      "still": 2770,
      "village": 2771,
      "75": 2772,
      "anim": 2773,
      "going": 2774,
      "super": 2775,
      "Priyanka": 2776,
      "Jait": 2777,
      "##ences": 2778,
      "picture": 2779,
      "Cor": 2780,
      "##ataka": 2781,
      "##alleng": 2782,
      "tow": 2783,
      "France": 2784,
      "travel": 2785,
      "Karnataka": 2786,
      "##zil": 2787,
      "##imb": 2788,
      "##ksh": 2789,
      "meas": 2790,
      "dismiss": 2791,
      "followed": 2792,
      "Gr": 2793,
      "issues": 2794,
      "Mu": 2795,
      "Zeal": 2796,
      "obs": 2797,
      "##ott": 2798,
      "Zealand": 2799,
      "har": 2800,
      "La": 2801,
      "nuclear": 2802,
      "##ico": 2803,
      "##chie": 2804,
      "##ocr": 2805,
      "##avy": 2806,
      "local": 2807,
      "Cricket": 2808,
      "sil": 2809,
      "conv": 2810,
      "allows": 2811,
      "##ami": 2812,
      "reach": 2813,
      "withd": 2814,
      "##ulation": 2815,
      "##angana": 2816,
      "allowed": 2817,
      "aim": 2818,
      "##pite": 2819,
      "##uction": 2820,
      "control": 2821,
      "Jaitley": 2822,
      "exch": 2823,
      "trade": 2824,
      "autom": 2825,
      "corrup": 2826,
      "tournament": 2827,
      "fr": 2828,
      "fell": 2829,
      "##soft": 2830,
      "Stud": 2831,
      "minutes": 2832,
      "becom": 2833,
      "Microsoft": 2834,
      "night": 2835,
      "sale": 2836,
      "murder": 2837,
      "mot": 2838,
      "mother": 2839,
      "Def": 2840,
      "Ed": 2841,
      "HC": 2842,
      "##acting": 2843,
      "wickets": 2844,
      "supp": 2845,
      "Rukh": 2846,
      "##wag": 2847,
      "##MK": 2848,
      "##ements": 2849,
      "unveiled": 2850,
      "Governor": 2851,
      "Muk": 2852,
      "educ": 2853,
      "construc": 2854,
      "Vice": 2855,
      "Video": 2856,
      "##aces": 2857,
      "prices": 2858,
      "##ords": 2859,
      "insp": 2860,
      "Android": 2861,
      "Us": 2862,
      "products": 2863,
      "Director": 2864,
      "iPhone": 2865,
      "field": 2866,
      "daughter": 2867,
      "sn": 2868,
      "Champions": 2869,
      "##ins": 2870,
      "##berg": 2871,
      "infl": 2872,
      "Deep": 2873,
      "charges": 2874,
      "turned": 2875,
      "youn": 2876,
      "search": 2877,
      "tele": 2878,
      "##lement": 2879,
      "##ogn": 2880,
      "##ociation": 2881,
      "Aut": 2882,
      "annual": 2883,
      "small": 2884,
      "##ify": 2885,
      "Germany": 2886,
      "authorities": 2887,
      "Brazil": 2888,
      "cannot": 2889,
      "shut": 2890,
      "Aam": 2891,
      "cross": 2892,
      "##itive": 2893,
      "##vind": 2894,
      "Central": 2895,
      "Akhil": 2896,
      "nine": 2897,
      "sat": 2898,
      "increased": 2899,
      "##ney": 2900,
      "seeking": 2901,
      "display": 2902,
      "##men": 2903,
      "box": 2904,
      "hon": 2905,
      "##ification": 2906,
      "Net": 2907,
      "div": 2908,
      "##vest": 2909,
      "Republic": 2910,
      "##uses": 2911,
      "having": 2912,
      "offer": 2913,
      "##asing": 2914,
      "##itor": 2915,
      "ens": 2916,
      "appointed": 2917,
      "respectively": 2918,
      "Mot": 2919,
      "##ern": 2920,
      "press": 2921,
      "disp": 2922,
      "imm": 2923,
      "##less": 2924,
      "##using": 2925,
      "hous": 2926,
      "Cap": 2927,
      "##ev": 2928,
      "character": 2929,
      "Vijay": 2930,
      "Prem": 2931,
      "##erve": 2932,
      "##cep": 2933,
      "Syrian": 2934,
      "accident": 2935,
      "know": 2936,
      "Pal": 2937,
      "##ji": 2938,
      "defeated": 2939,
      "side": 2940,
      "goal": 2941,
      "development": 2942,
      "##ready": 2943,
      "##abin": 2944,
      "Reports": 2945,
      "related": 2946,
      "achie": 2947,
      "##ox": 2948,
      "towards": 2949,
      "##ites": 2950,
      "failed": 2951,
      "confirmed": 2952,
      "##by": 2953,
      "sel": 2954,
      "##ll": 2955,
      "##ny": 2956,
      "##most": 2957,
      "told": 2958,
      "repr": 2959,
      "##oses": 2960,
      "applic": 2961,
      "website": 2962,
      "Fed": 2963,
      "Mo": 2964,
      "already": 2965,
      "##forman": 2966,
      "block": 2967,
      "##ouncil": 2968,
      "laws": 2969,
      "Follow": 2970,
      "##kart": 2971,
      "##ells": 2972,
      "##inder": 2973,
      "production": 2974,
      "question": 2975,
      "##irc": 2976,
      "##aps": 2977,
      "sales": 2978,
      "career": 2979,
      "sy": 2980,
      "33": 2981,
      "think": 2982,
      "##epend": 2983,
      "YouT": 2984,
      "liqu": 2985,
      "much": 2986,
      "##hib": 2987,
      "proper": 2988,
      "energy": 2989,
      "##gether": 2990,
      "Christ": 2991,
      "funds": 2992,
      "Exp": 2993,
      "illeg": 2994,
      "vic": 2995,
      "together": 2996,
      "strike": 2997,
      "Following": 2998,
      "Home": 2999,
      "House": 3000,
      "docum": 3001,
      "Muslim": 3002,
      "Tra": 3003,
      "calls": 3004,
      "##king": 3005,
      "##edic": 3006,
      "resul": 3007,
      "inside": 3008,
      "mer": 3009,
      "address": 3010,
      "advert": 3011,
      "your": 3012,
      "seats": 3013,
      "ordered": 3014,
      "##jected": 3015,
      "##vey": 3016,
      "singer": 3017,
      "Clin": 3018,
      "Roy": 3019,
      "##aut": 3020,
      "birthday": 3021,
      "Sachin": 3022,
      "wall": 3023,
      "##aper": 3024,
      "##isted": 3025,
      "##agar": 3026,
      "##itional": 3027,
      "opened": 3028,
      "Aff": 3029,
      "sought": 3030,
      "##ibility": 3031,
      "remain": 3032,
      "##co": 3033,
      "prison": 3034,
      "areas": 3035,
      "impro": 3036,
      "estim": 3037,
      "Akhilesh": 3038,
      "few": 3039,
      "##ially": 3040,
      "##ellig": 3041,
      "signed": 3042,
      "outside": 3043,
      "##ease": 3044,
      "customers": 3045,
      "stars": 3046,
      "##rought": 3047,
      "Turkey": 3048,
      "citiz": 3049,
      "Flip": 3050,
      "lik": 3051,
      "##bass": 3052,
      "despite": 3053,
      "letter": 3054,
      "movie": 3055,
      "vers": 3056,
      "##ja": 3057,
      "##rew": 3058,
      "building": 3059,
      "Ira": 3060,
      "Mc": 3061,
      "##alal": 3062,
      "Rav": 3063,
      "squ": 3064,
      "##itution": 3065,
      "performan": 3066,
      "club": 3067,
      "dam": 3068,
      "feet": 3069,
      "##rap": 3070,
      "##ension": 3071,
      "driving": 3072,
      "bring": 3073,
      "Iraq": 3074,
      "note": 3075,
      "Car": 3076,
      "lab": 3077,
      "vol": 3078,
      "Clinton": 3079,
      "IPL": 3080,
      "anal": 3081,
      "screen": 3082,
      "soft": 3083,
      "promot": 3084,
      "solar": 3085,
      "industry": 3086,
      "YouTube": 3087,
      "tre": 3088,
      "##mi": 3089,
      "sugg": 3090,
      "lin": 3091,
      "##aging": 3092,
      "Ste": 3093,
      "charge": 3094,
      "suspended": 3095,
      "model": 3096,
      "Directed": 3097,
      "Flipkart": 3098,
      "Chen": 3099,
      "##hing": 3100,
      "##elling": 3101,
      "Asia": 3102,
      "install": 3103,
      "cities": 3104,
      "Africa": 3105,
      "scheme": 3106,
      "##craft": 3107,
      "##amed": 3108,
      "reb": 3109,
      "Two": 3110,
      "Saudi": 3111,
      "Bal": 3112,
      "Bhar": 3113,
      "mult": 3114,
      "rise": 3115,
      "trending": 3116,
      "batter": 3117,
      "wicket": 3118,
      "revenue": 3119,
      "Dev": 3120,
      "Far": 3121,
      "ICC": 3122,
      "fake": 3123,
      "##vision": 3124,
      "##be": 3125,
      "once": 3126,
      "leave": 3127,
      "wins": 3128,
      "ISIS": 3129,
      "senior": 3130,
      "##til": 3131,
      "Karan": 3132,
      "dom": 3133,
      "staff": 3134,
      "##isting": 3135,
      "caused": 3136,
      "Jayalal": 3137,
      "Jayalalith": 3138,
      "militants": 3139,
      "##band": 3140,
      "comb": 3141,
      "Super": 3142,
      "gun": 3143,
      "mass": 3144,
      "##urb": 3145,
      "##verage": 3146,
      "term": 3147,
      "Samaj": 3148,
      "ground": 3149,
      "##aught": 3150,
      "denied": 3151,
      "##ashed": 3152,
      "step": 3153,
      "planning": 3154,
      "##ga": 3155,
      "surf": 3156,
      "Jayalalithaa": 3157,
      "EU": 3158,
      "##AD": 3159,
      "400": 3160,
      "Ne": 3161,
      "pub": 3162,
      "##olution": 3163,
      "##ifty": 3164,
      "regard": 3165,
      "raise": 3166,
      "Dav": 3167,
      "##vir": 3168,
      "##gel": 3169,
      "##za": 3170,
      "##rael": 3171,
      "##abh": 3172,
      "2011": 3173,
      "##hips": 3174,
      "English": 3175,
      "love": 3176,
      "Israel": 3177,
      "lets": 3178,
      "##lex": 3179,
      "beat": 3180,
      "##mon": 3181,
      "##ona": 3182,
      "ord": 3183,
      "remark": 3184,
      "Assam": 3185,
      "ranked": 3186,
      "internet": 3187,
      "Mark": 3188,
      "Pad": 3189,
      "Tes": 3190,
      "treat": 3191,
      "includes": 3192,
      "consum": 3193,
      "matches": 3194,
      "SP": 3195,
      "Star": 3196,
      "investment": 3197,
      "clean": 3198,
      "festival": 3199,
      "Indians": 3200,
      "##rants": 3201,
      "Hyder": 3202,
      "card": 3203,
      "witness": 3204,
      "scientists": 3205,
      "RS": 3206,
      "##awan": 3207,
      "regul": 3208,
      "featuring": 3209,
      "Department": 3210,
      "Reliance": 3211,
      "65": 3212,
      "##self": 3213,
      "##nai": 3214,
      "##ances": 3215,
      "respond": 3216,
      "discovered": 3217,
      "chec": 3218,
      "Hyderabad": 3219,
      "mis": 3220,
      "##ead": 3221,
      "##lus": 3222,
      "himself": 3223,
      "strong": 3224,
      "full": 3225,
      "late": 3226,
      "vote": 3227,
      "almost": 3228,
      "contest": 3229,
      "Reacting": 3230,
      "AT": 3231,
      "CBI": 3232,
      "ve": 3233,
      "implement": 3234,
      "##elligence": 3235,
      "Dem": 3236,
      "##win": 3237,
      "mid": 3238,
      "##itch": 3239,
      "alleg": 3240,
      "continue": 3241,
      "bur": 3242,
      "lat": 3243,
      "##oice": 3244,
      "##isha": 3245,
      "score": 3246,
      "##achal": 3247,
      "helped": 3248,
      "interest": 3249,
      "network": 3250,
      "exc": 3251,
      "Arvind": 3252,
      "Mess": 3253,
      "brain": 3254,
      "trying": 3255,
      "##ilar": 3256,
      "##abinet": 3257,
      "victory": 3258,
      "99": 3259,
      "dog": 3260,
      "gave": 3261,
      "##hlet": 3262,
      "century": 3263,
      "digital": 3264,
      "lif": 3265,
      "##person": 3266,
      "community": 3267,
      "passengers": 3268,
      "ple": 3269,
      "##amy": 3270,
      "athlet": 3271,
      "John": 3272,
      "Bach": 3273,
      "Cal": 3274,
      "Fir": 3275,
      "Sena": 3276,
      "department": 3277,
      "legal": 3278,
      "##tel": 3279,
      "##ecom": 3280,
      "getting": 3281,
      "camera": 3282,
      "Bill": 3283,
      "Ir": 3284,
      "Offic": 3285,
      "recogn": 3286,
      "coach": 3287,
      "farm": 3288,
      "kilomet": 3289,
      "batsman": 3290,
      "tel": 3291,
      "innings": 3292,
      "mater": 3293,
      "talk": 3294,
      "”.": 3295,
      "##wadi": 3296,
      "Invest": 3297,
      "Tesla": 3298,
      "Bab": 3299,
      "##tors": 3300,
      "officer": 3301,
      "Add": 3302,
      "vehicles": 3303,
      "matter": 3304,
      "##anth": 3305,
      "##olled": 3306,
      "successful": 3307,
      "Var": 3308,
      "##ael": 3309,
      "approved": 3310,
      "effect": 3311,
      "Sens": 3312,
      "Year": 3313,
      "hom": 3314,
      "rail": 3315,
      "schools": 3316,
      "##portedly": 3317,
      "Aamir": 3318,
      "Mex": 3319,
      "sem": 3320,
      "soldiers": 3321,
      "Affairs": 3322,
      "Chennai": 3323,
      "auction": 3324,
      "dro": 3325,
      "##aming": 3326,
      "peace": 3327,
      "Mer": 3328,
      "##arh": 3329,
      "stay": 3330,
      "##imum": 3331,
      "Gur": 3332,
      "##gency": 3333,
      "##FA": 3334,
      "##asth": 3335,
      "Chop": 3336,
      "army": 3337,
      "Inter": 3338,
      "proble": 3339,
      "involved": 3340,
      "fly": 3341,
      "park": 3342,
      "adding": 3343,
      "titled": 3344,
      "corruption": 3345,
      "sum": 3346,
      "##lished": 3347,
      "##estic": 3348,
      "opening": 3349,
      "Madh": 3350,
      "Best": 3351,
      "Fore": 3352,
      "ris": 3353,
      "##ea": 3354,
      "##onment": 3355,
      "station": 3356,
      "##chan": 3357,
      "latest": 3358,
      "Aksh": 3359,
      "Su": 3360,
      "So": 3361,
      "dies": 3362,
      "##akers": 3363,
      "income": 3364,
      "Premier": 3365,
      "55": 3366,
      "exam": 3367,
      "research": 3368,
      "starting": 3369,
      "speech": 3370,
      "line": 3371,
      "proposed": 3372,
      "Kan": 3373,
      "##tic": 3374,
      "##nis": 3375,
      "##here": 3376,
      "##araj": 3377,
      "story": 3378,
      "owned": 3379,
      "devices": 3380,
      "flag": 3381,
      "kg": 3382,
      "##anted": 3383,
      "relig": 3384,
      "central": 3385,
      "Chopra": 3386,
      "recomm": 3387,
      "aircraft": 3388,
      "slammed": 3389,
      "Akshay": 3390,
      "##oid": 3391,
      "pick": 3392,
      "watch": 3393,
      "##iles": 3394,
      "##aged": 3395,
      "spin": 3396,
      "import": 3397,
      "bad": 3398,
      "circ": 3399,
      "offers": 3400,
      "Real": 3401,
      "done": 3402,
      "##ota": 3403,
      "##ivid": 3404,
      "Em": 3405,
      "##ux": 3406,
      "average": 3407,
      "born": 3408,
      "categ": 3409,
      "shi": 3410,
      "trib": 3411,
      "ongoing": 3412,
      "officers": 3413,
      "investors": 3414,
      "terrorism": 3415,
      "presidential": 3416,
      "Gold": 3417,
      "Phil": 3418,
      "Sush": 3419,
      "rape": 3420,
      "##iting": 3421,
      "##olk": 3422,
      "agre": 3423,
      "Reportedly": 3424,
      "America": 3425,
      "operations": 3426,
      "Gang": 3427,
      "Jack": 3428,
      "great": 3429,
      "economy": 3430,
      "repres": 3431,
      "##yl": 3432,
      "##ction": 3433,
      "depos": 3434,
      "similar": 3435,
      "pil": 3436,
      "Techn": 3437,
      "mem": 3438,
      "pain": 3439,
      "poor": 3440,
      "##oes": 3441,
      "##int": 3442,
      "able": 3443,
      "Pune": 3444,
      "Paris": 3445,
      "Japanese": 3446,
      "##edding": 3447,
      "Ka": 3448,
      "draw": 3449,
      "foc": 3450,
      "lives": 3451,
      "parties": 3452,
      "terrorists": 3453,
      "Samajwadi": 3454,
      "##vironment": 3455,
      "Sub": 3456,
      "##rd": 3457,
      "##iced": 3458,
      "review": 3459,
      "challeng": 3460,
      "conducted": 3461,
      "Jio": 3462,
      "drop": 3463,
      "##uv": 3464,
      "##stand": 3465,
      "##sp": 3466,
      "##IM": 3467,
      "##orts": 3468,
      "protests": 3469,
      "##ades": 3470,
      "##ador": 3471,
      "airport": 3472,
      "##minist": 3473,
      "Express": 3474,
      "Osc": 3475,
      "Ter": 3476,
      "Val": 3477,
      "##add": 3478,
      "Force": 3479,
      "Bachchan": 3480,
      "Sensex": 3481,
      "Her": 3482,
      "Under": 3483,
      "student": 3484,
      "relations": 3485,
      "197": 3486,
      "##uddin": 3487,
      "introduced": 3488,
      "IT": 3489,
      "Ban": 3490,
      "hour": 3491,
      "propos": 3492,
      "gener": 3493,
      "colle": 3494,
      "candidate": 3495,
      "satell": 3496,
      "##ring": 3497,
      "##ires": 3498,
      "##ense": 3499,
      "training": 3500,
      "initiative": 3501,
      "Mich": 3502,
      "ben": 3503,
      "cast": 3504,
      "##MC": 3505,
      "##imate": 3506,
      "panel": 3507,
      "##uture": 3508,
      "##avour": 3509,
      "##ploy": 3510,
      "refug": 3511,
      "Hindu": 3512,
      "illegal": 3513,
      "performance": 3514,
      "%.": 3515,
      "uses": 3516,
      "driver": 3517,
      "Women": 3518,
      "talks": 3519,
      "Foreign": 3520,
      "37": 3521,
      "wee": 3522,
      "included": 3523,
      "killing": 3524,
      "Ah": 3525,
      "agency": 3526,
      "clear": 3527,
      "##asthan": 3528,
      "Arab": 3529,
      "too": 3530,
      "Inf": 3531,
      "individ": 3532,
      "##azine": 3533,
      "##hra": 3534,
      "spokes": 3535,
      "brother": 3536,
      "soon": 3537,
      "television": 3538,
      "seconds": 3539,
      "demanded": 3540,
      "committee": 3541,
      "Deepika": 3542,
      "citizens": 3543,
      "Seh": 3544,
      "Association": 3545,
      "missing": 3546,
      "delivery": 3547,
      "trav": 3548,
      "##encies": 3549,
      "payments": 3550,
      "metre": 3551,
      "Lok": 3552,
      "##itute": 3553,
      "##emen": 3554,
      "details": 3555,
      "early": 3556,
      "Britain": 3557,
      "couple": 3558,
      "King": 3559,
      "penal": 3560,
      "yet": 3561,
      "##oe": 3562,
      "##aily": 3563,
      "Rajasthan": 3564,
      "hard": 3565,
      "however": 3566,
      "sour": 3567,
      "##aug": 3568,
      "resc": 3569,
      "##istance": 3570,
      "awarded": 3571,
      "Railways": 3572,
      "People": 3573,
      "Council": 3574,
      "MS": 3575,
      "bab": 3576,
      "sets": 3577,
      "##iet": 3578,
      "Scientists": 3579,
      "written": 3580,
      "weeks": 3581,
      "Nit": 3582,
      "fif": 3583,
      "giant": 3584,
      "##bed": 3585,
      "##ily": 3586,
      "##eless": 3587,
      "seized": 3588,
      "maker": 3589,
      "##hand": 3590,
      "##board": 3591,
      "began": 3592,
      "chan": 3593,
      "firms": 3594,
      "##adium": 3595,
      "sharing": 3596,
      "Ashwin": 3597,
      "aims": 3598,
      "##ps": 3599,
      "asks": 3600,
      "Canada": 3601,
      "allegations": 3602,
      "Kat": 3603,
      "Od": 3604,
      "fashion": 3605,
      "mig": 3606,
      "##alax": 3607,
      "##ability": 3608,
      "conc": 3609,
      "offered": 3610,
      "Space": 3611,
      "individual": 3612,
      "##mal": 3613,
      "T20I": 3614,
      "##ential": 3615,
      "suppor": 3616,
      "Develop": 3617,
      "600": 3618,
      "Hollywood": 3619,
      "Roh": 3620,
      "Serv": 3621,
      "terrorist": 3622,
      "refused": 3623,
      "violence": 3624,
      "pract": 3625,
      "Ge": 3626,
      "NG": 3627,
      "projects": 3628,
      "hotel": 3629,
      "48": 3630,
      "Dut": 3631,
      "Mir": 3632,
      "economic": 3633,
      "rock": 3634,
      "upd": 3635,
      "restaur": 3636,
      "exchange": 3637,
      "Tax": 3638,
      "##veer": 3639,
      "##ander": 3640,
      "Pet": 3641,
      "key": 3642,
      "agreed": 3643,
      "compared": 3644,
      "gas": 3645,
      "hus": 3646,
      "youth": 3647,
      "##ented": 3648,
      "interview": 3649,
      "photo": 3650,
      "organisation": 3651,
      "Sehwag": 3652,
      "?&#": 3653,
      "##onse": 3654,
      "##room": 3655,
      "attemp": 3656,
      "ensure": 3657,
      "44": 3658,
      "Ba": 3659,
      "date": 3660,
      "ey": 3661,
      "force": 3662,
      "##angu": 3663,
      "instead": 3664,
      "photos": 3665,
      "magazine": 3666,
      "benef": 3667,
      "NS": 3668,
      "##ecting": 3669,
      "notice": 3670,
      "surg": 3671,
      "believed": 3672,
      "(₹": 3673,
      "Hill": 3674,
      "Nifty": 3675,
      "##rav": 3676,
      "##pping": 3677,
      "origin": 3678,
      "RSS": 3679,
      "38": 3680,
      "Hum": 3681,
      "Lal": 3682,
      "rose": 3683,
      "##ique": 3684,
      "##yan": 3685,
      "##enture": 3686,
      "teac": 3687,
      "feel": 3688,
      "wrest": 3689,
      "material": 3690,
      "43": 3691,
      "bat": 3692,
      "pack": 3693,
      "room": 3694,
      "wedding": 3695,
      "plane": 3696,
      "journal": 3697,
      "aimed": 3698,
      "Awards": 3699,
      "Di": 3700,
      "hy": 3701,
      "living": 3702,
      "via": 3703,
      "##mark": 3704,
      "neg": 3705,
      "##useum": 3706,
      "vehicle": 3707,
      "liquor": 3708,
      "version": 3709,
      "##aser": 3710,
      "##aked": 3711,
      "leading": 3712,
      "electron": 3713,
      "commerce": 3714,
      "51": 3715,
      "##crib": 3716,
      "Madrid": 3717,
      "42": 3718,
      "##wa": 3719,
      "##aped": 3720,
      "##indra": 3721,
      "medical": 3722,
      "recorded": 3723,
      "temper": 3724,
      "cerem": 3725,
      "software": 3726,
      "##ensive": 3727,
      "personnel": 3728,
      "Sar": 3729,
      "##IC": 3730,
      "##ida": 3731,
      "store": 3732,
      "150": 3733,
      "Bhatt": 3734,
      "reached": 3735,
      "Defence": 3736,
      "Park": 3737,
      "##wan": 3738,
      "##RK": 3739,
      "##hel": 3740,
      "comment": 3741,
      "capt": 3742,
      "Comp": 3743,
      "reduc": 3744,
      "yrs": 3745,
      "domestic": 3746,
      "!&#": 3747,
      "Games": 3748,
      "strikes": 3749,
      "wearing": 3750,
      "Des": 3751,
      "##nam": 3752,
      "pictures": 3753,
      "suggested": 3754,
      "Bad": 3755,
      "##duce": 3756,
      "##rin": 3757,
      "##ocks": 3758,
      "Alia": 3759,
      "giving": 3760,
      "Yog": 3761,
      "vac": 3762,
      "##reg": 3763,
      "##agram": 3764,
      "cancer": 3765,
      "joint": 3766,
      "Bre": 3767,
      "actors": 3768,
      "until": 3769,
      "Security": 3770,
      "needs": 3771,
      "girls": 3772,
      "town": 3773,
      "Kolk": 3774,
      "Mor": 3775,
      "Mally": 3776,
      "Qu": 3777,
      "site": 3778,
      "##oj": 3779,
      "##erved": 3780,
      "phones": 3781,
      "affected": 3782,
      "temple": 3783,
      "Kolkata": 3784,
      "47": 3785,
      "##raj": 3786,
      "overs": 3787,
      "Mallya": 3788,
      "reserv": 3789,
      "##ributed": 3790,
      "robot": 3791,
      "daily": 3792,
      "mn": 3793,
      "sanc": 3794,
      "##ilities": 3795,
      "traffic": 3796,
      "response": 3797,
      "retail": 3798,
      "edition": 3799,
      "Instagram": 3800,
      "husband": 3801,
      "##isher": 3802,
      "##ulture": 3803,
      "jobs": 3804,
      "petition": 3805,
      "Afghanistan": 3806,
      "advertis": 3807,
      "fifth": 3808,
      "##ugg": 3809,
      "Patel": 3810,
      "Budget": 3811,
      "Dil": 3812,
      "Med": 3813,
      "##yr": 3814,
      "##ider": 3815,
      "##anda": 3816,
      "removed": 3817,
      "artist": 3818,
      "broke": 3819,
      "fix": 3820,
      "pot": 3821,
      "##nath": 3822,
      "##adem": 3823,
      "phys": 3824,
      "Commit": 3825,
      "What": 3826,
      "wrong": 3827,
      "Ranveer": 3828,
      "battery": 3829,
      "cour": 3830,
      "tro": 3831,
      "##akhand": 3832,
      "assets": 3833,
      "Lanka": 3834,
      "To": 3835,
      "lear": 3836,
      "##ties": 3837,
      "##uries": 3838,
      "Michael": 3839,
      "crow": 3840,
      "caught": 3841,
      "white": 3842,
      "##chester": 3843,
      "196": 3844,
      "pos": 3845,
      "##ories": 3846,
      "##poration": 3847,
      "##agh": 3848,
      "selling": 3849,
      "Mart": 3850,
      "stake": 3851,
      "##rip": 3852,
      "Angel": 3853,
      "didn": 3854,
      "Barcel": 3855,
      "Barcelona": 3856,
      "Mistry": 3857,
      "thr": 3858,
      "##ulkar": 3859,
      "Asian": 3860,
      "Manchester": 3861,
      "vide": 3862,
      "rejected": 3863,
      "##thing": 3864,
      "##val": 3865,
      "##ita": 3866,
      "doing": 3867,
      "MLAs": 3868,
      "David": 3869,
      "49": 3870,
      "85": 3871,
      "Big": 3872,
      "##bir": 3873,
      "##ference": 3874,
      "##ront": 3875,
      "longest": 3876,
      "takes": 3877,
      "smartphones": 3878,
      "connection": 3879,
      "rules": 3880,
      "Snapd": 3881,
      "withdraw": 3882,
      "Committee": 3883,
      "Ro": 3884,
      "esc": 3885,
      "jump": 3886,
      "wanted": 3887,
      "forward": 3888,
      "deploy": 3889,
      "Around": 3890,
      "##iversary": 3891,
      "value": 3892,
      "position": 3893,
      "##IT": 3894,
      "stock": 3895,
      "USA": 3896,
      "carrying": 3897,
      "Trans": 3898,
      "education": 3899,
      "##inness": 3900,
      "##iscal": 3901,
      "situation": 3902,
      "Dis": 3903,
      "und": 3904,
      "##wide": 3905,
      "##igation": 3906,
      "adop": 3907,
      "canc": 3908,
      "Uttarakhand": 3909,
      "Dr": 3910,
      "##son": 3911,
      "alliance": 3912,
      "##ize": 3913,
      "##lines": 3914,
      "colour": 3915,
      "future": 3916,
      "cred": 3917,
      "admitted": 3918,
      "##ples": 3919,
      "anniversary": 3920,
      "calling": 3921,
      "earth": 3922,
      "photograph": 3923,
      "Justice": 3924,
      "##tm": 3925,
      "##jit": 3926,
      "why": 3927,
      "Guinness": 3928,
      "fastest": 3929,
      "Aad": 3930,
      "ice": 3931,
      "langu": 3932,
      "Pras": 3933,
      "attend": 3934,
      "content": 3935,
      "proposal": 3936,
      "bid": 3937,
      "mach": 3938,
      "##itation": 3939,
      "2008": 3940,
      "startups": 3941,
      "transac": 3942,
      "marria": 3943,
      "doesn": 3944,
      "appoint": 3945,
      "heart": 3946,
      "honour": 3947,
      "bound": 3948,
      "ep": 3949,
      "##FC": 3950,
      "reduce": 3951,
      "complete": 3952,
      "estimated": 3953,
      "Ben": 3954,
      "bag": 3955,
      "po": 3956,
      "##iling": 3957,
      "Andhra": 3958,
      "break": 3959,
      "Cabinet": 3960,
      "Sid": 3961,
      "##ban": 3962,
      "##utions": 3963,
      "##apt": 3964,
      "##quel": 3965,
      "imposed": 3966,
      "Spe": 3967,
      "Prez": 3968,
      "ton": 3969,
      "Italy": 3970,
      "elected": 3971,
      "attacked": 3972,
      "warned": 3973,
      "Per": 3974,
      "cop": 3975,
      "nations": 3976,
      "##lands": 3977,
      "Development": 3978,
      "Ronald": 3979,
      "rad": 3980,
      "collection": 3981,
      "cause": 3982,
      "attempt": 3983,
      "##uff": 3984,
      "##aries": 3985,
      "blood": 3986,
      "belong": 3987,
      "orders": 3988,
      "ceremony": 3989,
      "SRK": 3990,
      "eas": 3991,
      "favour": 3992,
      "log": 3993,
      "partner": 3994,
      "##ockey": 3995,
      "complaint": 3996,
      "Paytm": 3997,
      "videos": 3998,
      "send": 3999,
      "walk": 4000,
      "##fire": 4001,
      "##come": 4002,
      "##oke": 4003,
      "image": 4004,
      "married": 4005,
      "criticised": 4006,
      "Fl": 4007,
      "Tend": 4008,
      "aud": 4009,
      "wind": 4010,
      "##iber": 4011,
      "##ault": 4012,
      "inaug": 4013,
      "defeat": 4014,
      "completed": 4015,
      "Bharat": 4016,
      "base": 4017,
      "fig": 4018,
      "poster": 4019,
      "##medi": 4020,
      "White": 4021,
      "surv": 4022,
      "arrest": 4023,
      "popular": 4024,
      "##ycle": 4025,
      "Kr": 4026,
      "kids": 4027,
      "##ined": 4028,
      "champ": 4029,
      "##ikh": 4030,
      "joined": 4031,
      "possible": 4032,
      "Study": 4033,
      "Tendulkar": 4034,
      ";[": 4035,
      "existing": 4036,
      "names": 4037,
      "Johar": 4038,
      "emergency": 4039,
      "agreement": 4040,
      "##alaxy": 4041,
      "Bel": 4042,
      "fiscal": 4043,
      "##side": 4044,
      "always": 4045,
      "Founder": 4046,
      "urged": 4047,
      "purch": 4048,
      "immig": 4049,
      "Times": 4050,
      "When": 4051,
      "hands": 4052,
      "##of": 4053,
      "showed": 4054,
      "sexual": 4055,
      "seeks": 4056,
      "CP": 4057,
      "##oles": 4058,
      "crim": 4059,
      "2010": 4060,
      "running": 4061,
      "pollution": 4062,
      "Korean": 4063,
      "AIAD": 4064,
      "AIADMK": 4065,
      "Mun": 4066,
      "Ros": 4067,
      "ver": 4068,
      "toil": 4069,
      "compens": 4070,
      "carried": 4071,
      "posts": 4072,
      "raises": 4073,
      "farmers": 4074,
      "41": 4075,
      "ful": 4076,
      "##ham": 4077,
      "##put": 4078,
      "##ems": 4079,
      "Ital": 4080,
      "explos": 4081,
      "African": 4082,
      "##reedom": 4083,
      "Philipp": 4084,
      "spokesperson": 4085,
      "Port": 4086,
      "bail": 4087,
      "budget": 4088,
      "lot": 4089,
      "##IA": 4090,
      "##asion": 4091,
      "forced": 4092,
      "likely": 4093,
      "First": 4094,
      "dress": 4095,
      "##iff": 4096,
      "settle": 4097,
      "gives": 4098,
      "groups": 4099,
      "counter": 4100,
      "##och": 4101,
      "##AI": 4102,
      "markets": 4103,
      "double": 4104,
      "Global": 4105,
      "Bomb": 4106,
      "Hr": 4107,
      "Nep": 4108,
      "##load": 4109,
      "##ST": 4110,
      "Mars": 4111,
      "profession": 4112,
      "Grand": 4113,
      "His": 4114,
      "fine": 4115,
      "##yle": 4116,
      "##ini": 4117,
      "resident": 4118,
      "results": 4119,
      "52": 4120,
      "say": 4121,
      "##iction": 4122,
      "administ": 4123,
      "parts": 4124,
      "BSF": 4125,
      "apolog": 4126,
      "Hillary": 4127,
      "Dub": 4128,
      "ele": 4129,
      "spent": 4130,
      "##aves": 4131,
      "Franc": 4132,
      "teams": 4133,
      "defence": 4134,
      "Play": 4135,
      "investigation": 4136,
      "dropped": 4137,
      "%,": 4138,
      "JN": 4139,
      "Rat": 4140,
      "saw": 4141,
      "##rikar": 4142,
      "##ift": 4143,
      "partners": 4144,
      "Parrikar": 4145,
      "##RO": 4146,
      "accep": 4147,
      "##rones": 4148,
      "ren": 4149,
      "##DP": 4150,
      "##very": 4151,
      "ste": 4152,
      "##pore": 4153,
      "operation": 4154,
      "parents": 4155,
      "candidates": 4156,
      "construction": 4157,
      "check": 4158,
      "Ola": 4159,
      "pair": 4160,
      "##OS": 4161,
      "##ithik": 4162,
      "Swamy": 4163,
      "levels": 4164,
      "Messi": 4165,
      "##aram": 4166,
      "##ached": 4167,
      "clar": 4168,
      "served": 4169,
      "coal": 4170,
      "images": 4171,
      "ATM": 4172,
      "mist": 4173,
      "range": 4174,
      "##gent": 4175,
      "##lied": 4176,
      "minor": 4177,
      "Muslims": 4178,
      "function": 4179,
      "Mas": 4180,
      "Na": 4181,
      "wants": 4182,
      "##rem": 4183,
      "separ": 4184,
      "Comm": 4185,
      "Prasad": 4186,
      "asking": 4187,
      "195": 4188,
      "facing": 4189,
      "shooting": 4190,
      "Hrithik": 4191,
      "NC": 4192,
      "##cial": 4193,
      "inch": 4194,
      "coming": 4195,
      "##mph": 4196,
      "independ": 4197,
      "Musk": 4198,
      "encounter": 4199,
      "considered": 4200,
      "JNU": 4201,
      "comed": 4202,
      "intelligence": 4203,
      "committed": 4204,
      "##bassador": 4205,
      "pun": 4206,
      "rule": 4207,
      "##ental": 4208,
      "##aba": 4209,
      "recovered": 4210,
      "##angal": 4211,
      "unit": 4212,
      "secret": 4213,
      "Note": 4214,
      "Airtel": 4215,
      "transfer": 4216,
      "organised": 4217,
      "IIT": 4218,
      "victims": 4219,
      "Miss": 4220,
      "surr": 4221,
      "##ula": 4222,
      "##iforn": 4223,
      "Californ": 4224,
      "Odisha": 4225,
      "GB": 4226,
      "du": 4227,
      "##bit": 4228,
      "##back": 4229,
      "##stron": 4230,
      "whose": 4231,
      "manufactur": 4232,
      "row": 4233,
      "##rant": 4234,
      "Indies": 4235,
      "above": 4236,
      "drive": 4237,
      "Shahid": 4238,
      "constit": 4239,
      "costs": 4240,
      "entire": 4241,
      "Corporation": 4242,
      "lower": 4243,
      "##now": 4244,
      "stra": 4245,
      "higher": 4246,
      "Barack": 4247,
      "Malays": 4248,
      "God": 4249,
      "band": 4250,
      "spread": 4251,
      "powered": 4252,
      "##ammad": 4253,
      "designed": 4254,
      "estab": 4255,
      "friends": 4256,
      "FIR": 4257,
      "Mexico": 4258,
      "Technology": 4259,
      "Italian": 4260,
      "3D": 4261,
      "figh": 4262,
      "units": 4263,
      "claiming": 4264,
      "##enced": 4265,
      "##ipur": 4266,
      "regarding": 4267,
      "session": 4268,
      "##the": 4269,
      "environment": 4270,
      "scam": 4271,
      "oldest": 4272,
      "mission": 4273,
      "ill": 4274,
      "population": 4275,
      "maintain": 4276,
      "silver": 4277,
      "California": 4278,
      "Tour": 4279,
      "##ira": 4280,
      "plant": 4281,
      "##thern": 4282,
      "becomes": 4283,
      "Users": 4284,
      "##aya": 4285,
      "enough": 4286,
      "missile": 4287,
      "tennis": 4288,
      "responsible": 4289,
      "treatment": 4290,
      "46": 4291,
      "Met": 4292,
      "ND": 4293,
      "cease": 4294,
      "gain": 4295,
      "mol": 4296,
      "rival": 4297,
      "##ece": 4298,
      "prevent": 4299,
      "competition": 4300,
      "Madhya": 4301,
      "Festival": 4302,
      "Tal": 4303,
      "lic": 4304,
      "##rog": 4305,
      "##esting": 4306,
      "charged": 4307,
      "##ype": 4308,
      "Power": 4309,
      "stage": 4310,
      "Adity": 4311,
      "connect": 4312,
      "Willi": 4313,
      "##ewell": 4314,
      "Adv": 4315,
      "backed": 4316,
      "activities": 4317,
      "fans": 4318,
      "##losed": 4319,
      "##atural": 4320,
      "##phy": 4321,
      "provided": 4322,
      "point": 4323,
      "destro": 4324,
      "baby": 4325,
      "Kangana": 4326,
      "micro": 4327,
      "##ble": 4328,
      "crash": 4329,
      "Chh": 4330,
      "##arya": 4331,
      "##ously": 4332,
      "weap": 4333,
      "helps": 4334,
      "Amb": 4335,
      "believe": 4336,
      "Snapdeal": 4337,
      "Mam": 4338,
      "Tests": 4339,
      "centre": 4340,
      "53": 4341,
      "rac": 4342,
      "ruled": 4343,
      "##ternal": 4344,
      "deaths": 4345,
      "required": 4346,
      "cal": 4347,
      "front": 4348,
      "rally": 4349,
      "These": 4350,
      "##abor": 4351,
      "immedi": 4352,
      "67": 4353,
      "##mb": 4354,
      "##atives": 4355,
      "##ela": 4356,
      "caption": 4357,
      "product": 4358,
      "250": 4359,
      "drone": 4360,
      "explains": 4361,
      "organis": 4362,
      "suggest": 4363,
      "54": 4364,
      "56": 4365,
      "Kal": 4366,
      "##wor": 4367,
      "##rial": 4368,
      "accept": 4369,
      "Founded": 4370,
      "dismissed": 4371,
      "improve": 4372,
      "Democr": 4373,
      "Jh": 4374,
      "aid": 4375,
      "##abled": 4376,
      "offering": 4377,
      "Amar": 4378,
      "portr": 4379,
      "inspired": 4380,
      "champion": 4381,
      "Kim": 4382,
      "Nob": 4383,
      "games": 4384,
      "##ayam": 4385,
      "##unk": 4386,
      "##astic": 4387,
      "Start": 4388,
      "looking": 4389,
      "Mul": 4390,
      "Sk": 4391,
      "kid": 4392,
      "##RC": 4393,
      "##osh": 4394,
      "abs": 4395,
      "##ength": 4396,
      "monitor": 4397,
      "Rajya": 4398,
      "safety": 4399,
      "Amitabh": 4400,
      "represent": 4401,
      "Him": 4402,
      "gar": 4403,
      "rum": 4404,
      "##inc": 4405,
      "##ological": 4406,
      "struc": 4407,
      "scoring": 4408,
      "promote": 4409,
      "suspected": 4410,
      "Abd": 4411,
      "Black": 4412,
      "young": 4413,
      "straight": 4414,
      "James": 4415,
      "pers": 4416,
      "sound": 4417,
      "ship": 4418,
      "touch": 4419,
      "##aving": 4420,
      "prep": 4421,
      "remov": 4422,
      "families": 4423,
      "swim": 4424,
      "marriage": 4425,
      "bn": 4426,
      "sle": 4427,
      "##hold": 4428,
      "provides": 4429,
      "Cont": 4430,
      "opposition": 4431,
      "Nepal": 4432,
      "##itz": 4433,
      "Indust": 4434,
      "recall": 4435,
      "Anil": 4436,
      "Swaraj": 4437,
      "##ushka": 4438,
      "Deputy": 4439,
      "programme": 4440,
      "restaurant": 4441,
      "66": 4442,
      "##hai": 4443,
      "Health": 4444,
      "booked": 4445,
      "##akshi": 4446,
      "Author": 4447,
      "plea": 4448,
      "penalty": 4449,
      "Naw": 4450,
      "Anushka": 4451,
      "evidence": 4452,
      "metres": 4453,
      "risk": 4454,
      "ceasefire": 4455,
      "Wi": 4456,
      "fuel": 4457,
      "winner": 4458,
      "Swed": 4459,
      "Election": 4460,
      "Organ": 4461,
      "experience": 4462,
      "Sin": 4463,
      "might": 4464,
      "##nes": 4465,
      "##eeper": 4466,
      "conduct": 4467,
      "ruling": 4468,
      "Ronaldo": 4469,
      "Red": 4470,
      "Sports": 4471,
      "Tai": 4472,
      "##ashes": 4473,
      "Bur": 4474,
      "Nav": 4475,
      "Ud": 4476,
      "cards": 4477,
      "##xim": 4478,
      "save": 4479,
      "drugs": 4480,
      "limit": 4481,
      "57": 4482,
      "##ening": 4483,
      "aged": 4484,
      "majority": 4485,
      "Econom": 4486,
      "fan": 4487,
      "fear": 4488,
      "hur": 4489,
      "rain": 4490,
      "##ume": 4491,
      "places": 4492,
      "allowing": 4493,
      "ready": 4494,
      "BSP": 4495,
      "Nations": 4496,
      "Rai": 4497,
      "##anish": 4498,
      "filmmaker": 4499,
      "194": 4500,
      "describ": 4501,
      "politics": 4502,
      "previously": 4503,
      "inaugur": 4504,
      "Bombay": 4505,
      "hair": 4506,
      "##ffee": 4507,
      "medals": 4508,
      "subs": 4509,
      "informed": 4510,
      "identified": 4511,
      "Arunachal": 4512,
      "loans": 4513,
      "mor": 4514,
      "mand": 4515,
      "Why": 4516,
      "payment": 4517,
      "drink": 4518,
      "Sanjay": 4519,
      "commercial": 4520,
      "message": 4521,
      "houses": 4522,
      "Mulayam": 4523,
      "Pok": 4524,
      "race": 4525,
      "comments": 4526,
      "##ocked": 4527,
      "##attle": 4528,
      "800": 4529,
      "Nag": 4530,
      "Neh": 4531,
      "##TV": 4532,
      "##ceed": 4533,
      "placed": 4534,
      "survey": 4535,
      "protect": 4536,
      "victim": 4537,
      "published": 4538,
      "category": 4539,
      "68": 4540,
      "Sind": 4541,
      "Yah": 4542,
      "sear": 4543,
      "voice": 4544,
      "##BC": 4545,
      "##acity": 4546,
      "consecutive": 4547,
      "drivers": 4548,
      "reality": 4549,
      "athletes": 4550,
      "channel": 4551,
      "Meh": 4552,
      "Tom": 4553,
      "##bul": 4554,
      "##ayed": 4555,
      "goals": 4556,
      "worked": 4557,
      "trial": 4558,
      "Award": 4559,
      "kind": 4560,
      "ll": 4561,
      "tickets": 4562,
      "##rest": 4563,
      "##ila": 4564,
      "##roc": 4565,
      "##opic": 4566,
      "##iple": 4567,
      "chem": 4568,
      "species": 4569,
      "quality": 4570,
      "rates": 4571,
      "##ishing": 4572,
      "2009": 4573,
      "records": 4574,
      "avoid": 4575,
      "##ucker": 4576,
      "achieve": 4577,
      "fre": 4578,
      "##down": 4579,
      "##apore": 4580,
      "##vent": 4581,
      "##friend": 4582,
      "##bour": 4583,
      "arri": 4584,
      "Singapore": 4585,
      "Steve": 4586,
      "troops": 4587,
      "Sidd": 4588,
      "##fe": 4589,
      "##xit": 4590,
      "cris": 4591,
      "##aji": 4592,
      "##undred": 4593,
      "##overy": 4594,
      "holding": 4595,
      "stopp": 4596,
      "certain": 4597,
      "ir": 4598,
      "##orm": 4599,
      "##asts": 4600,
      "seed": 4601,
      "##aidu": 4602,
      "##fic": 4603,
      "##ba": 4604,
      "throw": 4605,
      "reform": 4606,
      "##rag": 4607,
      "##uls": 4608,
      "airline": 4609,
      "##ranch": 4610,
      "Hindi": 4611,
      "kilometres": 4612,
      "NGO": 4613,
      "Ber": 4614,
      "##iring": 4615,
      "Manipur": 4616,
      "Series": 4617,
      "basis": 4618,
      "harass": 4619,
      "documents": 4620,
      "telecom": 4621,
      ".”": 4622,
      "59": 4623,
      "64": 4624,
      "Don": 4625,
      "Im": 4626,
      "cur": 4627,
      "lack": 4628,
      "##rast": 4629,
      "##idge": 4630,
      "crime": 4631,
      "releases": 4632,
      "owner": 4633,
      "politic": 4634,
      "##uxury": 4635,
      "58": 4636,
      "Bat": 4637,
      "But": 4638,
      "##ru": 4639,
      "##mas": 4640,
      "##erted": 4641,
      "prem": 4642,
      "announcement": 4643,
      "condition": 4644,
      "railway": 4645,
      "crowd": 4646,
      "doll": 4647,
      "##ras": 4648,
      "##ither": 4649,
      "reason": 4650,
      "computer": 4651,
      "##anged": 4652,
      "Rajnath": 4653,
      "produced": 4654,
      "entry": 4655,
      "##iddle": 4656,
      "conditions": 4657,
      "crisis": 4658,
      "male": 4659,
      "marty": 4660,
      "##bon": 4661,
      "##ored": 4662,
      "##utin": 4663,
      "##unal": 4664,
      "outf": 4665,
      "capacity": 4666,
      "##rama": 4667,
      "common": 4668,
      "##gypt": 4669,
      "Capital": 4670,
      "witnessed": 4671,
      "Brexit": 4672,
      "Mamata": 4673,
      "Nawaz": 4674,
      "##rastruc": 4675,
      "Mur": 4676,
      "Sand": 4677,
      "gran": 4678,
      "max": 4679,
      "rout": 4680,
      "##isl": 4681,
      "extended": 4682,
      "hearing": 4683,
      "bowler": 4684,
      "emerged": 4685,
      "original": 4686,
      "criminal": 4687,
      "##uckerberg": 4688,
      "Zuckerberg": 4689,
      "brought": 4690,
      "##set": 4691,
      "##ima": 4692,
      "##anta": 4693,
      "serious": 4694,
      "carry": 4695,
      "holds": 4696,
      "votes": 4697,
      "IA": 4698,
      "Rad": 4699,
      "##ivity": 4700,
      "detained": 4701,
      "Cons": 4702,
      "Vol": 4703,
      "##iter": 4704,
      "Smith": 4705,
      "earthqu": 4706,
      "compensation": 4707,
      "72": 4708,
      "green": 4709,
      "listed": 4710,
      "##mes": 4711,
      "##garh": 4712,
      "tool": 4713,
      "things": 4714,
      "quit": 4715,
      "awards": 4716,
      "broad": 4717,
      "religious": 4718,
      "refugees": 4719,
      "Ahmed": 4720,
      "duo": 4721,
      "Egypt": 4722,
      "gang": 4723,
      "##ett": 4724,
      "Int": 4725,
      "##ohar": 4726,
      "communic": 4727,
      "passenger": 4728,
      "95": 4729,
      "Sas": 4730,
      "cert": 4731,
      "Researchers": 4732,
      "Yahoo": 4733,
      "GST": 4734,
      "Id": 4735,
      "bul": 4736,
      "losing": 4737,
      "##night": 4738,
      "##isions": 4739,
      "stating": 4740,
      "priced": 4741,
      "whether": 4742,
      "impact": 4743,
      "Kapil": 4744,
      "safe": 4745,
      "changes": 4746,
      "surface": 4747,
      "satellite": 4748,
      "##rastructure": 4749,
      "Galaxy": 4750,
      "##itude": 4751,
      "stations": 4752,
      "##ables": 4753,
      "founded": 4754,
      "deter": 4755,
      "receive": 4756,
      "somet": 4757,
      "##een": 4758,
      "##eter": 4759,
      "text": 4760,
      "62": 4761,
      "How": 4762,
      "Happ": 4763,
      "er": 4764,
      "##ih": 4765,
      "##str": 4766,
      "thank": 4767,
      "2018": 4768,
      "resolution": 4769,
      "##onds": 4770,
      "showc": 4771,
      "wherein": 4772,
      "large": 4773,
      "boost": 4774,
      "Rao": 4775,
      "supply": 4776,
      "Dubai": 4777,
      "700": 4778,
      "Bay": 4779,
      "Kare": 4780,
      "##va": 4781,
      "sea": 4782,
      "remove": 4783,
      "subsid": 4784,
      "74": 4785,
      "Rock": 4786,
      "SBI": 4787,
      "##imin": 4788,
      "##ema": 4789,
      "understand": 4790,
      "events": 4791,
      "virus": 4792,
      "granted": 4793,
      "Vid": 4794,
      "kmph": 4795,
      "##eness": 4796,
      "toll": 4797,
      "##eck": 4798,
      "##ream": 4799,
      "Manohar": 4800,
      "manufacturer": 4801,
      "##ximately": 4802,
      "Jai": 4803,
      "Lo": 4804,
      "tall": 4805,
      "##rat": 4806,
      "Another": 4807,
      "web": 4808,
      "coast": 4809,
      "distrib": 4810,
      "Railway": 4811,
      "diesel": 4812,
      "Dig": 4813,
      "Ki": 4814,
      "Sat": 4815,
      "iOS": 4816,
      "tests": 4817,
      "##ero": 4818,
      "##enn": 4819,
      "##opal": 4820,
      "wheel": 4821,
      "Whats": 4822,
      "insur": 4823,
      "movement": 4824,
      "Reserve": 4825,
      "testing": 4826,
      "equal": 4827,
      "Agency": 4828,
      "successfully": 4829,
      "Kareena": 4830,
      "Bah": 4831,
      "Kir": 4832,
      "##App": 4833,
      "##ED": 4834,
      "##stitution": 4835,
      "commission": 4836,
      "Three": 4837,
      "contrib": 4838,
      "associ": 4839,
      "Spain": 4840,
      "status": 4841,
      "Ranbir": 4842,
      "becoming": 4843,
      "property": 4844,
      "Ale": 4845,
      "EC": 4846,
      "Great": 4847,
      "Sum": 4848,
      "sport": 4849,
      "##eth": 4850,
      "##ankar": 4851,
      "judge": 4852,
      "concerns": 4853,
      "positive": 4854,
      "destroy": 4855,
      "catch": 4856,
      "##reet": 4857,
      "##chat": 4858,
      "trend": 4859,
      "showing": 4860,
      "starring": 4861,
      "BSE": 4862,
      "Telangana": 4863,
      "cells": 4864,
      "##iety": 4865,
      "itself": 4866,
      "additional": 4867,
      "##ancy": 4868,
      "Republican": 4869,
      "Arabia": 4870,
      "administration": 4871,
      "Nobel": 4872,
      "($": 4873,
      "Pand": 4874,
      "##enders": 4875,
      "arm": 4876,
      "restric": 4877,
      "demanding": 4878,
      "biopic": 4879,
      "observed": 4880,
      "application": 4881,
      "temperature": 4882,
      "##mn": 4883,
      "##ores": 4884,
      "Indones": 4885,
      "##oping": 4886,
      "deg": 4887,
      "approximately": 4888,
      "debt": 4889,
      "tried": 4890,
      "voted": 4891,
      "encour": 4892,
      "important": 4893,
      "Baner": 4894,
      "epis": 4895,
      "maximum": 4896,
      "IM": 4897,
      "Mos": 4898,
      "##acted": 4899,
      "##arkhand": 4900,
      "coop": 4901,
      "magn": 4902,
      "FIFA": 4903,
      "electricity": 4904,
      "Jharkhand": 4905,
      "Ver": 4906,
      "Vill": 4907,
      "code": 4908,
      "pac": 4909,
      "##eed": 4910,
      "##coh": 4911,
      "##ulated": 4912,
      "deep": 4913,
      "Government": 4914,
      "flood": 4915,
      "problems": 4916,
      "##cohol": 4917,
      "Curr": 4918,
      "Naidu": 4919,
      "theat": 4920,
      "##aches": 4921,
      "202": 4922,
      "##pper": 4923,
      "agencies": 4924,
      "##ikala": 4925,
      "pilot": 4926,
      "Ap": 4927,
      "page": 4928,
      "##olls": 4929,
      "phase": 4930,
      "##haar": 4931,
      "handed": 4932,
      "##ograp": 4933,
      "responsibility": 4934,
      "motor": 4935,
      "pressure": 4936,
      "analyst": 4937,
      "Banerjee": 4938,
      "2nd": 4939,
      "Cook": 4940,
      "Ur": 4941,
      "drama": 4942,
      "##ief": 4943,
      "##erous": 4944,
      "champions": 4945,
      "attr": 4946,
      "##urred": 4947,
      "Aadhaar": 4948,
      "Sasikala": 4949,
      "Mac": 4950,
      "##idel": 4951,
      "##road": 4952,
      "twice": 4953,
      "threatened": 4954,
      "Ven": 4955,
      "dedic": 4956,
      "##attis": 4957,
      "Sonam": 4958,
      "fresh": 4959,
      "fra": 4960,
      "##aching": 4961,
      "expand": 4962,
      "pregn": 4963,
      "mean": 4964,
      "celebrated": 4965,
      "manufacturing": 4966,
      "Mukher": 4967,
      "linked": 4968,
      "cell": 4969,
      "museum": 4970,
      "##urch": 4971,
      "##oman": 4972,
      "alcohol": 4973,
      "##opp": 4974,
      "result": 4975,
      "collabor": 4976,
      "Chris": 4977,
      "suffered": 4978,
      "transactions": 4979,
      "WhatsApp": 4980,
      "Gh": 4981,
      "Hai": 4982,
      "moved": 4983,
      "ticket": 4984,
      "worldwide": 4985,
      "Airport": 4986,
      "unveils": 4987,
      "semi": 4988,
      "VR": 4989,
      "franch": 4990,
      "natural": 4991,
      "##uj": 4992,
      "##RD": 4993,
      "plays": 4994,
      "terms": 4995,
      "balls": 4996,
      "Elect": 4997,
      "Sea": 4998,
      "entered": 4999,
      "ministers": 5000,
      "Sinha": 5001,
      "Gre": 5002,
      "##sel": 5003,
      "##adian": 5004,
      "##ppo": 5005,
      "announces": 5006,
      "##ova": 5007,
      "facility": 5008,
      "alongside": 5009,
      "fighting": 5010,
      "Turkish": 5011,
      "##ademy": 5012,
      "professional": 5013,
      "Pac": 5014,
      "##tual": 5015,
      "##ora": 5016,
      "formed": 5017,
      "##ashing": 5018,
      "##plom": 5019,
      "express": 5020,
      "providing": 5021,
      "transport": 5022,
      "Snapchat": 5023,
      "measures": 5024,
      "squad": 5025,
      "63": 5026,
      "Baj": 5027,
      "##etic": 5028,
      "##istant": 5029,
      "occup": 5030,
      "Sindhu": 5031,
      "Mukherjee": 5032,
      "During": 5033,
      "Ja": 5034,
      "Off": 5035,
      "paper": 5036,
      "##ady": 5037,
      "##iah": 5038,
      "##istic": 5039,
      "heavy": 5040,
      "abuse": 5041,
      "partic": 5042,
      "Argent": 5043,
      "Rajan": 5044,
      "##missions": 5045,
      "management": 5046,
      "Christmas": 5047,
      "##mbol": 5048,
      "Startup": 5049,
      "sleep": 5050,
      "Yuv": 5051,
      "hockey": 5052,
      "##lo": 5053,
      "##inger": 5054,
      "##uri": 5055,
      "climate": 5056,
      "efforts": 5057,
      "Institute": 5058,
      "limited": 5059,
      "Team": 5060,
      "reduced": 5061,
      "73": 5062,
      "Sol": 5063,
      "Sons": 5064,
      "Tod": 5065,
      "din": 5066,
      "hundred": 5067,
      "ride": 5068,
      "##ilk": 5069,
      "##andal": 5070,
      "worst": 5071,
      "contain": 5072,
      "Class": 5073,
      "language": 5074,
      "Call": 5075,
      "fle": 5076,
      "luxury": 5077,
      "pati": 5078,
      "##AM": 5079,
      "emb": 5080,
      "questioned": 5081,
      "Oscar": 5082,
      "appointment": 5083,
      "Ambani": 5084,
      "Dangal": 5085,
      "Sud": 5086,
      "##ional": 5087,
      "##odies": 5088,
      "##apers": 5089,
      "Art": 5090,
      "expressed": 5091,
      "marks": 5092,
      "glob": 5093,
      "skin": 5094,
      "doctors": 5095,
      "hacked": 5096,
      "surgical": 5097,
      "Ko": 5098,
      "gone": 5099,
      "size": 5100,
      "##oned": 5101,
      "agg": 5102,
      "unc": 5103,
      "ambassador": 5104,
      "finished": 5105,
      "slow": 5106,
      "Akh": 5107,
      "Canadian": 5108,
      "occasion": 5109,
      "diplom": 5110,
      "focus": 5111,
      "CPI": 5112,
      "61": 5113,
      "78": 5114,
      "East": 5115,
      "IC": 5116,
      "Sch": 5117,
      "Tri": 5118,
      "mal": 5119,
      "mos": 5120,
      "inn": 5121,
      "fired": 5122,
      "attended": 5123,
      "Abh": 5124,
      "lowest": 5125,
      "Niger": 5126,
      "Navy": 5127,
      "jewell": 5128,
      "pen": 5129,
      "##hod": 5130,
      "##ills": 5131,
      "waste": 5132,
      "closed": 5133,
      "Singer": 5134,
      "##alymp": 5135,
      "weapons": 5136,
      "Happy": 5137,
      "Mel": 5138,
      "Mag": 5139,
      "Part": 5140,
      "Sir": 5141,
      "##rum": 5142,
      "##arters": 5143,
      "island": 5144,
      "##unch": 5145,
      "##ricts": 5146,
      "##ooth": 5147,
      "Research": 5148,
      "acquired": 5149,
      "spinner": 5150,
      "Poké": 5151,
      "##attisgarh": 5152,
      "Hot": 5153,
      "TN": 5154,
      "astron": 5155,
      "freedom": 5156,
      "##jun": 5157,
      "##iry": 5158,
      "league": 5159,
      "works": 5160,
      "newly": 5161,
      "##arge": 5162,
      "setting": 5163,
      "anyone": 5164,
      "symbol": 5165,
      "recommend": 5166,
      "bought": 5167,
      "cas": 5168,
      "hol": 5169,
      "##baba": 5170,
      "##anced": 5171,
      "crew": 5172,
      "owners": 5173,
      "cameras": 5174,
      "analys": 5175,
      "Infos": 5176,
      "hits": 5177,
      "mom": 5178,
      "apps": 5179,
      "##ishw": 5180,
      "bron": 5181,
      "faced": 5182,
      "Paralymp": 5183,
      "Mohammad": 5184,
      "##beat": 5185,
      "fraud": 5186,
      "Vik": 5187,
      "mind": 5188,
      "##ford": 5189,
      "files": 5190,
      "##oint": 5191,
      "districts": 5192,
      "below": 5193,
      "activity": 5194,
      "journey": 5195,
      "nominee": 5196,
      "76": 5197,
      "moon": 5198,
      "words": 5199,
      "##light": 5200,
      "##ishes": 5201,
      "produce": 5202,
      "193": 5203,
      "longer": 5204,
      "extra": 5205,
      "Mayaw": 5206,
      "replace": 5207,
      "Infosys": 5208,
      "71": 5209,
      "84": 5210,
      "Law": 5211,
      "ven": 5212,
      "wait": 5213,
      "##bes": 5214,
      "inte": 5215,
      "demands": 5216,
      "##arsh": 5217,
      "injury": 5218,
      "designer": 5219,
      "document": 5220,
      "challenge": 5221,
      "college": 5222,
      "Human": 5223,
      "Aleppo": 5224,
      "Some": 5225,
      "bed": 5226,
      "##erland": 5227,
      "##arti": 5228,
      "leaked": 5229,
      "##ultural": 5230,
      "instit": 5231,
      "Warner": 5232,
      "Varun": 5233,
      "migrants": 5234,
      "Talib": 5235,
      "bronze": 5236,
      "Mayawati": 5237,
      "Green": 5238,
      "Hol": 5239,
      "drought": 5240,
      "##adh": 5241,
      "democr": 5242,
      "Bhag": 5243,
      "##ificial": 5244,
      "manager": 5245,
      "credit": 5246,
      "constitu": 5247,
      "Chhattisgarh": 5248,
      "franchise": 5249,
      "Tiger": 5250,
      "Wind": 5251,
      "dating": 5252,
      "here": 5253,
      "table": 5254,
      "##porting": 5255,
      "prim": 5256,
      "##onding": 5257,
      "attributed": 5258,
      "##eshwar": 5259,
      "termed": 5260,
      "operating": 5261,
      "glass": 5262,
      "reply": 5263,
      "slams": 5264,
      "animals": 5265,
      "convic": 5266,
      "Official": 5267,
      "flying": 5268,
      "Nitish": 5269,
      "Williams": 5270,
      "earthquake": 5271,
      "69": 5272,
      "Wal": 5273,
      "cat": 5274,
      "ric": 5275,
      "##lers": 5276,
      "##pass": 5277,
      "##IL": 5278,
      "stadium": 5279,
      "2020": 5280,
      "##ectors": 5281,
      "##portun": 5282,
      "Reg": 5283,
      "flights": 5284,
      "##umbers": 5285,
      "tourists": 5286,
      "wrestler": 5287,
      "Martin": 5288,
      "Kab": 5289,
      "tech": 5290,
      "word": 5291,
      "##PF": 5292,
      "Pran": 5293,
      "planet": 5294,
      "approval": 5295,
      "remarks": 5296,
      "separate": 5297,
      "Taliban": 5298,
      "Fund": 5299,
      "river": 5300,
      "##ni": 5301,
      "##TO": 5302,
      "creating": 5303,
      "lawy": 5304,
      "celebrate": 5305,
      "##icipal": 5306,
      "loan": 5307,
      "Royal": 5308,
      "##gaon": 5309,
      "persons": 5310,
      "chemical": 5311,
      "Fashion": 5312,
      "Opp": 5313,
      "Path": 5314,
      "lapt": 5315,
      "nothing": 5316,
      "visa": 5317,
      "acquis": 5318,
      "damage": 5319,
      "Today": 5320,
      "Putin": 5321,
      "Sah": 5322,
      "ul": 5323,
      "cloud": 5324,
      "infrastructure": 5325,
      "##isclosed": 5326,
      "completely": 5327,
      "Records": 5328,
      "animal": 5329,
      "Geor": 5330,
      "patients": 5331,
      "Pict": 5332,
      "Sang": 5333,
      "TMC": 5334,
      "duty": 5335,
      "##fall": 5336,
      "##anj": 5337,
      "##anian": 5338,
      "##arian": 5339,
      "##ils": 5340,
      "stood": 5341,
      "##ibr": 5342,
      "asserted": 5343,
      "legisl": 5344,
      "bowling": 5345,
      "citing": 5346,
      "presented": 5347,
      "Disney": 5348,
      "cancelled": 5349,
      "Democratic": 5350,
      "82": 5351,
      "rap": 5352,
      "ties": 5353,
      "##iders": 5354,
      "opportun": 5355,
      "remains": 5356,
      "collected": 5357,
      "contract": 5358,
      "petrol": 5359,
      "litre": 5360,
      "travelling": 5361,
      "bott": 5362,
      "bodies": 5363,
      "gra": 5364,
      "lose": 5365,
      "##acts": 5366,
      "really": 5367,
      "##iller": 5368,
      "##ande": 5369,
      "##avi": 5370,
      "goods": 5371,
      "lawsuit": 5372,
      "multiple": 5373,
      "relationship": 5374,
      "Dutt": 5375,
      "Currently": 5376,
      "Paul": 5377,
      "kept": 5378,
      "numbers": 5379,
      "##ounded": 5380,
      "teen": 5381,
      "visited": 5382,
      "covered": 5383,
      "Harry": 5384,
      "influ": 5385,
      "Motors": 5386,
      "captured": 5387,
      "undisclosed": 5388,
      "Food": 5389,
      "Post": 5390,
      "dance": 5391,
      "lay": 5392,
      "roll": 5393,
      "##asons": 5394,
      "##rah": 5395,
      "##cean": 5396,
      "acting": 5397,
      "execut": 5398,
      "carbon": 5399,
      "Ars": 5400,
      "territ": 5401,
      "Patna": 5402,
      "Alibaba": 5403,
      "newsp": 5404,
      "suffering": 5405,
      "changed": 5406,
      "Portug": 5407,
      "dedicated": 5408,
      "91": 5409,
      "latter": 5410,
      "##hood": 5411,
      "##bh": 5412,
      "##NA": 5413,
      "##akur": 5414,
      "predic": 5415,
      "seat": 5416,
      "##ullah": 5417,
      "injuries": 5418,
      "activist": 5419,
      "doctor": 5420,
      "snow": 5421,
      "journalist": 5422,
      "stopped": 5423,
      "900": 5424,
      "CR": 5425,
      "Sain": 5426,
      "##ont": 5427,
      "##eland": 5428,
      "finals": 5429,
      "indic": 5430,
      "passes": 5431,
      "presence": 5432,
      "inflation": 5433,
      "##hibition": 5434,
      "Economic": 5435,
      "Yuvraj": 5436,
      "Tay": 5437,
      "##TI": 5438,
      "##icit": 5439,
      "##allik": 5440,
      "##aire": 5441,
      "monthly": 5442,
      "##viation": 5443,
      "External": 5444,
      "diffic": 5445,
      "turns": 5446,
      "Soft": 5447,
      "source": 5448,
      "Services": 5449,
      "Philippines": 5450,
      "difficult": 5451,
      "77": 5452,
      "Civil": 5453,
      "Do": 5454,
      "GDP": 5455,
      "bench": 5456,
      "mix": 5457,
      "wood": 5458,
      "##yber": 5459,
      "##pool": 5460,
      "##iti": 5461,
      "##elv": 5462,
      "adj": 5463,
      "executive": 5464,
      "cho": 5465,
      "##ousands": 5466,
      "themsel": 5467,
      "##ultan": 5468,
      "returned": 5469,
      "causing": 5470,
      "trains": 5471,
      "themselves": 5472,
      "DMK": 5473,
      "Our": 5474,
      "Soc": 5475,
      "fel": 5476,
      "rated": 5477,
      "##ken": 5478,
      "##pay": 5479,
      "##oms": 5480,
      "##ecess": 5481,
      "##unt": 5482,
      "scene": 5483,
      "starts": 5484,
      "weak": 5485,
      "blog": 5486,
      "##awat": 5487,
      "banking": 5488,
      "Elon": 5489,
      "involve": 5490,
      "judic": 5491,
      "merger": 5492,
      "update": 5493,
      "radio": 5494,
      "accepted": 5495,
      "Dar": 5496,
      "Nat": 5497,
      "Tro": 5498,
      "##acked": 5499,
      "##ogue": 5500,
      "sequel": 5501,
      "serve": 5502,
      "declin": 5503,
      "##ukone": 5504,
      "Feder": 5505,
      "Authority": 5506,
      "Lin": 5507,
      "Yemen": 5508,
      "der": 5509,
      "file": 5510,
      "hug": 5511,
      "venture": 5512,
      "##ho": 5513,
      "##can": 5514,
      "##repr": 5515,
      "##mpire": 5516,
      "##ovic": 5517,
      "assembly": 5518,
      "Maha": 5519,
      "normal": 5520,
      "Ford": 5521,
      "Lion": 5522,
      "Matt": 5523,
      "Of": 5524,
      "Zika": 5525,
      "##entures": 5526,
      "shoes": 5527,
      "##ichand": 5528,
      "##sea": 5529,
      "shel": 5530,
      "Forbes": 5531,
      "developing": 5532,
      "planned": 5533,
      "corpor": 5534,
      "friendly": 5535,
      "resignation": 5536,
      "Padukone": 5537,
      "potential": 5538,
      "Belg": 5539,
      "fully": 5540,
      "episode": 5541,
      "gather": 5542,
      "pi": 5543,
      "##anmar": 5544,
      "##estern": 5545,
      "##illa": 5546,
      "##owers": 5547,
      "Independ": 5548,
      "exit": 5549,
      "suit": 5550,
      "Spanish": 5551,
      "idea": 5552,
      "Myanmar": 5553,
      "Chel": 5554,
      "86": 5555,
      "CB": 5556,
      "Most": 5557,
      "Ret": 5558,
      "SA": 5559,
      "bird": 5560,
      "cow": 5561,
      "distance": 5562,
      "mas": 5563,
      "##TA": 5564,
      "Child": 5565,
      "##eff": 5566,
      "Also": 5567,
      "2007": 5568,
      "collect": 5569,
      "someone": 5570,
      "books": 5571,
      "questions": 5572,
      "Pokémon": 5573,
      "89": 5574,
      "Bas": 5575,
      "Foot": 5576,
      "Jat": 5577,
      "Jag": 5578,
      "School": 5579,
      "pra": 5580,
      "ri": 5581,
      "rural": 5582,
      "##uters": 5583,
      "##yn": 5584,
      "##SC": 5585,
      "##ino": 5586,
      "##olf": 5587,
      "##rier": 5588,
      "##bert": 5589,
      "Thakur": 5590,
      "Income": 5591,
      "permission": 5592,
      "weight": 5593,
      "anything": 5594,
      "earned": 5595,
      "growing": 5596,
      "request": 5597,
      "failure": 5598,
      "email": 5599,
      "losses": 5600,
      "happened": 5601,
      "managed": 5602,
      "practice": 5603,
      "Roshan": 5604,
      "Sultan": 5605,
      "core": 5606,
      "sun": 5607,
      "##iy": 5608,
      "##ica": 5609,
      "firing": 5610,
      "composed": 5611,
      "Arjun": 5612,
      "controlled": 5613,
      "guests": 5614,
      "humans": 5615,
      "prior": 5616,
      "occurred": 5617,
      "Trailer": 5618,
      "comedy": 5619,
      "pacer": 5620,
      "Chelsea": 5621,
      "98": 5622,
      "Bol": 5623,
      "HD": 5624,
      "Jos": 5625,
      "Kong": 5626,
      "LG": 5627,
      "Sen": 5628,
      "Srin": 5629,
      "dia": 5630,
      "kick": 5631,
      "sister": 5632,
      "##rina": 5633,
      "##bum": 5634,
      "##aring": 5635,
      "##ilty": 5636,
      "##urning": 5637,
      "##ushed": 5638,
      "disapp": 5639,
      "producer": 5640,
      "speaking": 5641,
      "roads": 5642,
      "square": 5643,
      "rebels": 5644,
      "Ay": 5645,
      "Den": 5646,
      "cyc": 5647,
      "##TC": 5648,
      "##erc": 5649,
      "alert": 5650,
      "##raf": 5651,
      "crashed": 5652,
      "##ounted": 5653,
      "goes": 5654,
      "truck": 5655,
      "scen": 5656,
      "subst": 5657,
      "increasing": 5658,
      "location": 5659,
      "acquisition": 5660,
      "More": 5661,
      "Rich": 5662,
      "##uz": 5663,
      "##olen": 5664,
      "residence": 5665,
      "##atures": 5666,
      "unl": 5667,
      "Leg": 5668,
      "Airlines": 5669,
      "Sharif": 5670,
      "Hindust": 5671,
      "messages": 5672,
      "dogs": 5673,
      "Katrina": 5674,
      "conclud": 5675,
      "electronics": 5676,
      "Jav": 5677,
      "Mit": 5678,
      "Prab": 5679,
      "Rana": 5680,
      "dang": 5681,
      "effic": 5682,
      "jawan": 5683,
      "rating": 5684,
      "##0s": 5685,
      "##iment": 5686,
      "##agement": 5687,
      "Thail": 5688,
      "Shr": 5689,
      "expensive": 5690,
      "guilty": 5691,
      "civilians": 5692,
      "problem": 5693,
      "rocket": 5694,
      "machine": 5695,
      "##them": 5696,
      "Week": 5697,
      "##itals": 5698,
      "##ading": 5699,
      "beer": 5700,
      "heat": 5701,
      "university": 5702,
      "##umble": 5703,
      "method": 5704,
      "models": 5705,
      "connected": 5706,
      "links": 5707,
      "Investigation": 5708,
      "Adding": 5709,
      "rescued": 5710,
      "richest": 5711,
      "##reprene": 5712,
      "Thailand": 5713,
      "Aus": 5714,
      "Som": 5715,
      "sung": 5716,
      "##erate": 5717,
      "##erry": 5718,
      "##athi": 5719,
      "items": 5720,
      "Anand": 5721,
      "Presidential": 5722,
      "Swiss": 5723,
      "sixth": 5724,
      "militant": 5725,
      "Smart": 5726,
      "divor": 5727,
      "sanctions": 5728,
      "figures": 5729,
      "coin": 5730,
      "danc": 5731,
      "gif": 5732,
      "wat": 5733,
      "##PS": 5734,
      "##acing": 5735,
      "##igg": 5736,
      "bran": 5737,
      "##resp": 5738,
      "promised": 5739,
      "judges": 5740,
      "Sunil": 5741,
      "Officer": 5742,
      "Lalu": 5743,
      "Krish": 5744,
      "Arsenal": 5745,
      "Sim": 5746,
      "Sikh": 5747,
      "Uk": 5748,
      "bike": 5749,
      "push": 5750,
      "##water": 5751,
      "##yo": 5752,
      "thought": 5753,
      "##odia": 5754,
      "conver": 5755,
      "##ogan": 5756,
      "Prot": 5757,
      "##quiry": 5758,
      "blue": 5759,
      "protection": 5760,
      "society": 5761,
      "salary": 5762,
      "installed": 5763,
      "Valley": 5764,
      "teachers": 5765,
      "Malaysia": 5766,
      "Alex": 5767,
      "Aishw": 5768,
      "Dhan": 5769,
      "Dhar": 5770,
      "Ha": 5771,
      "Luck": 5772,
      "Rob": 5773,
      "Vin": 5774,
      "fat": 5775,
      "##ishi": 5776,
      "##agers": 5777,
      "crimes": 5778,
      "floor": 5779,
      "statue": 5780,
      "villages": 5781,
      "directly": 5782,
      "immigration": 5783,
      "independent": 5784,
      "reforms": 5785,
      "something": 5786,
      "Trophy": 5787,
      "Cyr": 5788,
      "Que": 5789,
      "pul": 5790,
      "##bo": 5791,
      "##irement": 5792,
      "stolen": 5793,
      "##iano": 5794,
      "armed": 5795,
      "arms": 5796,
      "capable": 5797,
      "blast": 5798,
      "##formation": 5799,
      "##attu": 5800,
      "reveal": 5801,
      "doubles": 5802,
      "steps": 5803,
      "PS": 5804,
      "curb": 5805,
      "##mo": 5806,
      "##ureau": 5807,
      "remained": 5808,
      "employee": 5809,
      "sentenced": 5810,
      "##nson": 5811,
      "views": 5812,
      "Woman": 5813,
      "resigned": 5814,
      "advertisement": 5815,
      "Mic": 5816,
      "TR": 5817,
      "cuts": 5818,
      "gy": 5819,
      "##ki": 5820,
      "concept": 5821,
      "Model": 5822,
      "2006": 5823,
      "Bharti": 5824,
      "cleared": 5825,
      "generation": 5826,
      "tempor": 5827,
      "##wareness": 5828,
      "repe": 5829,
      "happy": 5830,
      "virtual": 5831,
      "Rohit": 5832,
      "fed": 5833,
      "hike": 5834,
      "tank": 5835,
      "pled": 5836,
      "neigh": 5837,
      "invited": 5838,
      "fined": 5839,
      "custody": 5840,
      "voters": 5841,
      "revol": 5842,
      "Sunny": 5843,
      "begins": 5844,
      "selected": 5845,
      "fighter": 5846,
      "Gup": 5847,
      "Make": 5848,
      "Public": 5849,
      "Pope": 5850,
      "Tem": 5851,
      "either": 5852,
      "gay": 5853,
      "##alse": 5854,
      "though": 5855,
      "conference": 5856,
      "2000": 5857,
      "##eleg": 5858,
      "province": 5859,
      "Mahindra": 5860,
      "facilities": 5861,
      "detect": 5862,
      "songs": 5863,
      "Johnson": 5864,
      "tourism": 5865,
      "Brad": 5866,
      "performed": 5867,
      "clarified": 5868,
      "Ajay": 5869,
      "Ref": 5870,
      "Tar": 5871,
      "Vod": 5872,
      "Vish": 5873,
      "burn": 5874,
      "##den": 5875,
      "##ares": 5876,
      "##rovers": 5877,
      "##ocol": 5878,
      "##usted": 5879,
      "resol": 5880,
      "Ins": 5881,
      "prepar": 5882,
      "transg": 5883,
      "weekend": 5884,
      "Virender": 5885,
      "Malik": 5886,
      "targeted": 5887,
      "blocked": 5888,
      "supporters": 5889,
      "eye": 5890,
      "Speaking": 5891,
      "Argentina": 5892,
      "Akhtar": 5893,
      "Federer": 5894,
      "Cyrus": 5895,
      "Hong": 5896,
      "wal": 5897,
      "##mosp": 5898,
      "##GC": 5899,
      "##aken": 5900,
      "plastic": 5901,
      "leaving": 5902,
      "clos": 5903,
      "science": 5904,
      "feed": 5905,
      "investor": 5906,
      "coup": 5907,
      "jewellery": 5908,
      "Hindustan": 5909,
      "83": 5910,
      "Fi": 5911,
      "Kam": 5912,
      "Nir": 5913,
      "Other": 5914,
      "Up": 5915,
      "##dev": 5916,
      "##PA": 5917,
      "##asi": 5918,
      "##oti": 5919,
      "##illed": 5920,
      "##abil": 5921,
      "clin": 5922,
      "opens": 5923,
      "Anti": 5924,
      "Manish": 5925,
      "##rown": 5926,
      "supported": 5927,
      "Switz": 5928,
      "systems": 5929,
      "needed": 5930,
      "defeating": 5931,
      "achieved": 5932,
      "Oscars": 5933,
      "Switzerland": 5934,
      "Ragh": 5935,
      "parliament": 5936,
      "##inik": 5937,
      "##iga": 5938,
      "spending": 5939,
      "##ankot": 5940,
      "Intern": 5941,
      "active": 5942,
      "##rams": 5943,
      "investments": 5944,
      "valuation": 5945,
      "IPO": 5946,
      "complaints": 5947,
      "Brazilian": 5948,
      "Captain": 5949,
      "Tourism": 5950,
      "Pathankot": 5951,
      "Football": 5952,
      "nar": 5953,
      "##iled": 5954,
      "##icop": 5955,
      "spect": 5956,
      "spons": 5957,
      "controvers": 5958,
      "##ips": 5959,
      "regular": 5960,
      "##iju": 5961,
      "located": 5962,
      "ide": 5963,
      "replaced": 5964,
      "participated": 5965,
      "Ganguly": 5966,
      "Opposition": 5967,
      "Kur": 5968,
      "false": 5969,
      "gender": 5970,
      "##auty": 5971,
      "##iser": 5972,
      "##uram": 5973,
      "##action": 5974,
      "##ansal": 5975,
      "##ixel": 5976,
      "##harth": 5977,
      "Rajinik": 5978,
      "Spec": 5979,
      "faces": 5980,
      "artificial": 5981,
      "Constitution": 5982,
      "appearance": 5983,
      "industrial": 5984,
      "Mukesh": 5985,
      "Ireland": 5986,
      "Interesting": 5987,
      "Subram": 5988,
      "Service": 5989,
      "reservation": 5990,
      "captioned": 5991,
      "Organisation": 5992,
      "Rajinikanth": 5993,
      "Interestingly": 5994,
      "79": 5995,
      "93": 5996,
      "Duter": 5997,
      "Pot": 5998,
      "fit": 5999,
      "sed": 6000,
      "##hir": 6001,
      "##arm": 6002,
      "##uting": 6003,
      "unbeat": 6004,
      "##enses": 6005,
      "grad": 6006,
      "continued": 6007,
      "##ground": 6008,
      "Noida": 6009,
      "appeared": 6010,
      "spotted": 6011,
      "Filmmaker": 6012,
      "morning": 6013,
      "certific": 6014,
      "Duterte": 6015,
      "Gay": 6016,
      "Lib": 6017,
      "fisher": 6018,
      "gross": 6019,
      "tab": 6020,
      "##lies": 6021,
      "##arily": 6022,
      "themed": 6023,
      "means": 6024,
      "earnings": 6025,
      "equip": 6026,
      "concert": 6027,
      "Suresh": 6028,
      "deployed": 6029,
      "partnership": 6030,
      "rumours": 6031,
      "96": 6032,
      "Educ": 6033,
      "Game": 6034,
      "Mi": 6035,
      "awareness": 6036,
      "ki": 6037,
      "##ship": 6038,
      "##brit": 6039,
      "##acker": 6040,
      "##anging": 6041,
      "##antic": 6042,
      "grand": 6043,
      "Euro": 6044,
      "visitors": 6045,
      "##afone": 6046,
      "moving": 6047,
      "regulator": 6048,
      "Pacific": 6049,
      "Vodafone": 6050,
      "unbeaten": 6051,
      "##brities": 6052,
      "Free": 6053,
      "Max": 6054,
      "bal": 6055,
      "bri": 6056,
      "album": 6057,
      "Indo": 6058,
      "##chol": 6059,
      "overt": 6060,
      "teaser": 6061,
      "##athon": 6062,
      "Airb": 6063,
      "submitted": 6064,
      "##venth": 6065,
      "Aishwarya": 6066,
      "Internet": 6067,
      "Jung": 6068,
      "RJ": 6069,
      "Road": 6070,
      "Tan": 6071,
      "Tim": 6072,
      "Water": 6073,
      "sust": 6074,
      "##ugh": 6075,
      "##key": 6076,
      "##vin": 6077,
      "##ctic": 6078,
      "##NS": 6079,
      "topped": 6080,
      "overall": 6081,
      "minimum": 6082,
      "plants": 6083,
      "stores": 6084,
      "storage": 6085,
      "applications": 6086,
      "88": 6087,
      "Ken": 6088,
      "Out": 6089,
      "Slam": 6090,
      "bull": 6091,
      "fee": 6092,
      "hop": 6093,
      "tested": 6094,
      "wid": 6095,
      "wel": 6096,
      "##di": 6097,
      "##In": 6098,
      "##esters": 6099,
      "##ola": 6100,
      "##ifying": 6101,
      "disease": 6102,
      "warning": 6103,
      "Sonia": 6104,
      "incidents": 6105,
      "condem": 6106,
      "Dalit": 6107,
      "Championship": 6108,
      "consumer": 6109,
      "homes": 6110,
      "tribute": 6111,
      "NSE": 6112,
      "harassment": 6113,
      "Haz": 6114,
      "Vis": 6115,
      "##active": 6116,
      "paying": 6117,
      "##ificant": 6118,
      "general": 6119,
      "Commissioner": 6120,
      "histor": 6121,
      "Transport": 6122,
      "mandatory": 6123,
      "globally": 6124,
      "##allikattu": 6125,
      "involvement": 6126,
      "mention": 6127,
      "typ": 6128,
      "##rim": 6129,
      "##gi": 6130,
      "##pal": 6131,
      "##ican": 6132,
      "##reats": 6133,
      "spend": 6134,
      "conflic": 6135,
      "ISRO": 6136,
      "Prize": 6137,
      "progress": 6138,
      "participate": 6139,
      "##ography": 6140,
      "nominated": 6141,
      "Sushma": 6142,
      "Sidhu": 6143,
      "Bureau": 6144,
      "Sil": 6145,
      "##sw": 6146,
      "arch": 6147,
      "##ateral": 6148,
      "Foundation": 6149,
      "performing": 6150,
      "integr": 6151,
      "##elvam": 6152,
      "BM": 6153,
      "Bef": 6154,
      "Jallikattu": 6155,
      "Sever": 6156,
      "Trib": 6157,
      "drones": 6158,
      "rising": 6159,
      "##onom": 6160,
      "chance": 6161,
      "##rics": 6162,
      "ends": 6163,
      "120": 6164,
      "everyone": 6165,
      "MPs": 6166,
      "350": 6167,
      "promoting": 6168,
      "deposits": 6169,
      "residents": 6170,
      "Himachal": 6171,
      "drinking": 6172,
      "searches": 6173,
      "92": 6174,
      "FBI": 6175,
      "Men": 6176,
      "PV": 6177,
      "##cy": 6178,
      "##cent": 6179,
      "##IP": 6180,
      "##esides": 6181,
      "beach": 6182,
      "##akash": 6183,
      "hailing": 6184,
      "chain": 6185,
      "pred": 6186,
      "Good": 6187,
      "secure": 6188,
      "sued": 6189,
      "flo": 6190,
      "quota": 6191,
      "tourist": 6192,
      "Raees": 6193,
      "Panne": 6194,
      "traditional": 6195,
      "Aditya": 6196,
      "Social": 6197,
      "Cub": 6198,
      "Lank": 6199,
      "Oper": 6200,
      "bom": 6201,
      "bac": 6202,
      "middle": 6203,
      "##iac": 6204,
      "##erselvam": 6205,
      "anc": 6206,
      "pros": 6207,
      "exerc": 6208,
      "Prince": 6209,
      "##izza": 6210,
      "##tainment": 6211,
      "Only": 6212,
      "rankings": 6213,
      "considering": 6214,
      "picked": 6215,
      "course": 6216,
      "adopted": 6217,
      "Education": 6218,
      "Panneerselvam": 6219,
      "87": 6220,
      ";:": 6221,
      "Bus": 6222,
      "Gamb": 6223,
      "cyber": 6224,
      "die": 6225,
      "hat": 6226,
      "pull": 6227,
      "atmosp": 6228,
      "##ountain": 6229,
      "option": 6230,
      "Online": 6231,
      "requested": 6232,
      "##cedes": 6233,
      "Irani": 6234,
      "object": 6235,
      "Yoga": 6236,
      "##idelines": 6237,
      "94": 6238,
      "97": 6239,
      "Uri": 6240,
      "Wars": 6241,
      "’,": 6242,
      "##SE": 6243,
      "##alore": 6244,
      "##irt": 6245,
      "##ros": 6246,
      "##rawal": 6247,
      "exem": 6248,
      "##ucks": 6249,
      "climb": 6250,
      "Stadium": 6251,
      "helicop": 6252,
      "founders": 6253,
      "bowled": 6254,
      "remaining": 6255,
      "recommended": 6256,
      "toilets": 6257,
      "ATMs": 6258,
      "Sweden": 6259,
      "NIA": 6260,
      "PC": 6261,
      "Redd": 6262,
      "WW": 6263,
      "tree": 6264,
      "##mates": 6265,
      "##gg": 6266,
      "##othes": 6267,
      "ministry": 6268,
      "##ologies": 6269,
      "entreprene": 6270,
      "activists": 6271,
      "initial": 6272,
      "characters": 6273,
      "Muft": 6274,
      "Ravi": 6275,
      "Mercedes": 6276,
      "supporting": 6277,
      "Ratan": 6278,
      "degree": 6279,
      "equipment": 6280,
      ";#": 6281,
      "Das": 6282,
      "##orial": 6283,
      "##oked": 6284,
      "Anur": 6285,
      "2004": 6286,
      "serving": 6287,
      "surpass": 6288,
      "owing": 6289,
      "charging": 6290,
      "skipp": 6291,
      "Bangalore": 6292,
      "selfie": 6293,
      "leadership": 6294,
      "rescue": 6295,
      "LoC": 6296,
      "Subramanian": 6297,
      "fishermen": 6298,
      "Mufti": 6299,
      "00": 6300,
      "ID": 6301,
      "Sis": 6302,
      "bans": 6303,
      "fair": 6304,
      "jet": 6305,
      "wild": 6306,
      "##lor": 6307,
      "##gu": 6308,
      "##obi": 6309,
      "blamed": 6310,
      "retired": 6311,
      "discl": 6312,
      "##wali": 6313,
      "trip": 6314,
      "footballer": 6315,
      "Ravichand": 6316,
      "Nehru": 6317,
      "Pranab": 6318,
      "declined": 6319,
      "Ravichandran": 6320,
      "Lab": 6321,
      "Los": 6322,
      "Pa": 6323,
      "faster": 6324,
      "grew": 6325,
      "##ipped": 6326,
      "##rad": 6327,
      "##BA": 6328,
      "##ashi": 6329,
      "##akar": 6330,
      "ant": 6331,
      "convers": 6332,
      "unf": 6333,
      "alloc": 6334,
      "expect": 6335,
      "flat": 6336,
      "campus": 6337,
      "receiving": 6338,
      "Gurgaon": 6339,
      "physical": 6340,
      "tonnes": 6341,
      "Taiwan": 6342,
      "Band": 6343,
      "Book": 6344,
      "gains": 6345,
      "mob": 6346,
      "##lets": 6347,
      "##more": 6348,
      "##lying": 6349,
      "govern": 6350,
      "##umption": 6351,
      "officially": 6352,
      "raising": 6353,
      "delet": 6354,
      "sites": 6355,
      "little": 6356,
      "Colomb": 6357,
      "Commun": 6358,
      "Special": 6359,
      "Bansal": 6360,
      "bor": 6361,
      "##iary": 6362,
      "##field": 6363,
      "##ulate": 6364,
      "Chan": 6365,
      "##oking": 6366,
      "uns": 6367,
      "offices": 6368,
      "decline": 6369,
      "##iverse": 6370,
      "medic": 6371,
      "creates": 6372,
      "taxes": 6373,
      "explain": 6374,
      "Saif": 6375,
      "diam": 6376,
      "implementation": 6377,
      "structure": 6378,
      "Several": 6379,
      "Av": 6380,
      "UA": 6381,
      "XI": 6382,
      "cart": 6383,
      "##iya": 6384,
      "##cast": 6385,
      "##ania": 6386,
      "##ato": 6387,
      "threats": 6388,
      "##eman": 6389,
      "shown": 6390,
      "Crist": 6391,
      "Telecom": 6392,
      "Dj": 6393,
      "Lord": 6394,
      "sou": 6395,
      "##echan": 6396,
      "##ahar": 6397,
      "appeal": 6398,
      "##fort": 6399,
      "##riti": 6400,
      "significant": 6401,
      "modern": 6402,
      "labour": 6403,
      "Israeli": 6404,
      "##addha": 6405,
      "Control": 6406,
      "##ographer": 6407,
      "Shraddha": 6408,
      "Lucknow": 6409,
      "pulled": 6410,
      "Both": 6411,
      "Daw": 6412,
      "Ham": 6413,
      "Ib": 6414,
      "Oil": 6415,
      "Rawat": 6416,
      "ly": 6417,
      "lod": 6418,
      "link": 6419,
      "pitch": 6420,
      "##vention": 6421,
      "##box": 6422,
      "##pir": 6423,
      "alone": 6424,
      "theme": 6425,
      "violation": 6426,
      "Scot": 6427,
      "Produc": 6428,
      "portal": 6429,
      "consider": 6430,
      "Mirza": 6431,
      "Amarinder": 6432,
      "dollar": 6433,
      "Volks": 6434,
      "Windows": 6435,
      "Anurag": 6436,
      "IB": 6437,
      "Jac": 6438,
      "bonds": 6439,
      "dark": 6440,
      "tim": 6441,
      "wore": 6442,
      "wide": 6443,
      "##dom": 6444,
      "##khar": 6445,
      "##rison": 6446,
      "##ura": 6447,
      "forest": 6448,
      "##una": 6449,
      "spac": 6450,
      "perman": 6451,
      "invested": 6452,
      "##oyal": 6453,
      "premi": 6454,
      "extrem": 6455,
      "specific": 6456,
      "landing": 6457,
      "Azhar": 6458,
      "Diwali": 6459,
      "learn": 6460,
      "Office": 6461,
      "George": 6462,
      "Cens": 6463,
      "Haw": 6464,
      "Lod": 6465,
      "Nov": 6466,
      "##iture": 6467,
      "##thy": 6468,
      "##iants": 6469,
      "deals": 6470,
      "chairman": 6471,
      "##ella": 6472,
      "output": 6473,
      "centres": 6474,
      "##enez": 6475,
      "Motor": 6476,
      "benefit": 6477,
      "hyd": 6478,
      "Morgan": 6479,
      "toilet": 6480,
      "establish": 6481,
      "described": 6482,
      "Indonesia": 6483,
      "huge": 6484,
      "Gopal": 6485,
      "JD": 6486,
      "Rang": 6487,
      "RAM": 6488,
      "##Bank": 6489,
      "##stan": 6490,
      "##rome": 6491,
      "##ressing": 6492,
      "footage": 6493,
      "triple": 6494,
      "##wagen": 6495,
      "purchase": 6496,
      "SoftBank": 6497,
      "Volkswagen": 6498,
      "Every": 6499,
      "Girl": 6500,
      "Kumble": 6501,
      "SE": 6502,
      "Senior": 6503,
      "Vi": 6504,
      "Zimb": 6505,
      "cab": 6506,
      "wir": 6507,
      "##atically": 6508,
      "##ille": 6509,
      "leak": 6510,
      "recover": 6511,
      "##ajan": 6512,
      "Shankar": 6513,
      "##place": 6514,
      "##phone": 6515,
      "2001": 6516,
      "Dhawan": 6517,
      "printed": 6518,
      "youngest": 6519,
      "81": 6520,
      "CC": 6521,
      "DNA": 6522,
      "Liver": 6523,
      "Tit": 6524,
      "culture": 6525,
      "fitness": 6526,
      "mut": 6527,
      "##ket": 6528,
      "##omi": 6529,
      "##agi": 6530,
      "##herry": 6531,
      "enhan": 6532,
      "trick": 6533,
      "scan": 6534,
      "contact": 6535,
      "##seas": 6536,
      "tweeting": 6537,
      "2005": 6538,
      "prize": 6539,
      "##isco": 6540,
      "##minton": 6541,
      "initially": 6542,
      "entering": 6543,
      "norms": 6544,
      "combined": 6545,
      "Portugal": 6546,
      "Gar": 6547,
      "Naz": 6548,
      "Top": 6549,
      "battle": 6550,
      "emissions": 6551,
      "jaw": 6552,
      "rat": 6553,
      "##hot": 6554,
      "##met": 6555,
      "##ammed": 6556,
      "reasons": 6557,
      "##abwe": 6558,
      "cricketers": 6559,
      "hosted": 6560,
      "movies": 6561,
      "voting": 6562,
      "Mao": 6563,
      "trees": 6564,
      "talking": 6565,
      "sources": 6566,
      "##works": 6567,
      "Sisodia": 6568,
      "Zimbabwe": 6569,
      "Now": 6570,
      "esp": 6571,
      "fish": 6572,
      "tag": 6573,
      "##house": 6574,
      "##ilateral": 6575,
      "##achi": 6576,
      "answ": 6577,
      "##icking": 6578,
      "assaul": 6579,
      "evac": 6580,
      "celebrations": 6581,
      "sensors": 6582,
      "addressing": 6583,
      "prisoners": 6584,
      "Iraqi": 6585,
      "Officials": 6586,
      "Lankan": 6587,
      "Jaw": 6588,
      "Land": 6589,
      "lands": 6590,
      "loses": 6591,
      "wish": 6592,
      "##vard": 6593,
      "##icing": 6594,
      "proof": 6595,
      "##ailed": 6596,
      "Head": 6597,
      "assistance": 6598,
      "Amid": 6599,
      "headqu": 6600,
      "scores": 6601,
      "locations": 6602,
      "hacking": 6603,
      "Federation": 6604,
      "Kaif": 6605,
      "Company": 6606,
      "insurance": 6607,
      "Pictures": 6608,
      "Independence": 6609,
      "Gupta": 6610,
      "%)": 6611,
      "Doc": 6612,
      "Hel": 6613,
      "Raf": 6614,
      "Xia": 6615,
      "##uated": 6616,
      "##rate": 6617,
      "##watch": 6618,
      "##cl": 6619,
      "induc": 6620,
      "##itt": 6621,
      "##ili": 6622,
      "trust": 6623,
      "Show": 6624,
      "##ample": 6625,
      "weather": 6626,
      "meant": 6627,
      "protesters": 6628,
      "compete": 6629,
      "hospitals": 6630,
      "dispute": 6631,
      "recognised": 6632,
      "Angeles": 6633,
      "immediately": 6634,
      "removal": 6635,
      "outfit": 6636,
      "newspaper": 6637,
      "judicial": 6638,
      "divorce": 6639,
      "TRAI": 6640,
      "RJD": 6641,
      "Hous": 6642,
      "Jong": 6643,
      "Po": 6644,
      "Venez": 6645,
      "Wik": 6646,
      "sand": 6647,
      "##off": 6648,
      "##asan": 6649,
      "##uth": 6650,
      "##ulations": 6651,
      "##apse": 6652,
      "##acket": 6653,
      "clothes": 6654,
      "##enger": 6655,
      "wealth": 6656,
      "celebrities": 6657,
      "handle": 6658,
      "businesses": 6659,
      "charity": 6660,
      "satellites": 6661,
      "NCR": 6662,
      "skipper": 6663,
      "Venezuel": 6664,
      "Mand": 6665,
      "Ventures": 6666,
      "brib": 6667,
      "rom": 6668,
      "##fare": 6669,
      "##joy": 6670,
      "##Fi": 6671,
      "scient": 6672,
      "amend": 6673,
      "blind": 6674,
      "struck": 6675,
      "submit": 6676,
      "collaps": 6677,
      "returns": 6678,
      "withdrawal": 6679,
      "Baloch": 6680,
      "martyred": 6681,
      "Partners": 6682,
      "Liverpool": 6683,
      "Gad": 6684,
      "Jun": 6685,
      "Life": 6686,
      "bath": 6687,
      "deleg": 6688,
      "nav": 6689,
      "tack": 6690,
      "##da": 6691,
      "##lad": 6692,
      "##yap": 6693,
      "##etch": 6694,
      "##olling": 6695,
      "scale": 6696,
      "finish": 6697,
      "helping": 6698,
      "##elfare": 6699,
      "transpar": 6700,
      "##ervation": 6701,
      "websites": 6702,
      "princ": 6703,
      "Palest": 6704,
      "surgery": 6705,
      "steel": 6706,
      "benchmark": 6707,
      "Cristiano": 6708,
      "CO": 6709,
      "Fer": 6710,
      "Gaut": 6711,
      "NZ": 6712,
      "Om": 6713,
      "Pul": 6714,
      "Roman": 6715,
      "RTI": 6716,
      "Ten": 6717,
      "fest": 6718,
      "fold": 6719,
      "hope": 6720,
      "##cing": 6721,
      "##ecraft": 6722,
      "convert": 6723,
      "assault": 6724,
      "index": 6725,
      "earn": 6726,
      "internal": 6727,
      "properties": 6728,
      "responded": 6729,
      "advertisements": 6730,
      "photographs": 6731,
      "institutions": 6732,
      "Lionel": 6733,
      "Scotland": 6734,
      "Jade": 6735,
      "Win": 6736,
      "doping": 6737,
      "hik": 6738,
      "mechan": 6739,
      "schol": 6740,
      "##hew": 6741,
      "##omp": 6742,
      "##ighth": 6743,
      "chat": 6744,
      "##oga": 6745,
      "Sha": 6746,
      "##umps": 6747,
      "dece": 6748,
      "quick": 6749,
      "discovery": 6750,
      "download": 6751,
      "##ijing": 6752,
      "Beijing": 6753,
      "customer": 6754,
      "falls": 6755,
      "360": 6756,
      "kilog": 6757,
      "automaker": 6758,
      "Badal": 6759,
      "learning": 6760,
      "punish": 6761,
      "cooperation": 6762,
      "innov": 6763,
      "casual": 6764,
      "CRPF": 6765,
      "bacter": 6766,
      "DR": 6767,
      "HRD": 6768,
      "Last": 6769,
      "dressed": 6770,
      "porn": 6771,
      "raped": 6772,
      "’.": 6773,
      "”,": 6774,
      "##isi": 6775,
      "##eline": 6776,
      "stands": 6777,
      "seventh": 6778,
      "addition": 6779,
      "consumption": 6780,
      "retirement": 6781,
      "Guard": 6782,
      "girlfriend": 6783,
      "soldier": 6784,
      "policies": 6785,
      "tracks": 6786,
      "volun": 6787,
      "combat": 6788,
      "SpaceX": 6789,
      "individuals": 6790,
      "established": 6791,
      "concluded": 6792,
      "Bet": 6793,
      "Cast": 6794,
      "Love": 6795,
      "Rod": 6796,
      "Washing": 6797,
      "maid": 6798,
      "crack": 6799,
      "Challeng": 6800,
      "seg": 6801,
      "trigg": 6802,
      "univers": 6803,
      "Academy": 6804,
      "instruc": 6805,
      "centuries": 6806,
      "causes": 6807,
      "guidelines": 6808,
      "valued": 6809,
      "affect": 6810,
      "stories": 6811,
      "criticism": 6812,
      "athlete": 6813,
      "negative": 6814,
      "electronic": 6815,
      "moment": 6816,
      "Queen": 6817,
      "Potter": 6818,
      "Washington": 6819,
      "Lee": 6820,
      "Viet": 6821,
      "cook": 6822,
      "makers": 6823,
      "rises": 6824,
      "wing": 6825,
      "##nav": 6826,
      "##pri": 6827,
      "##inations": 6828,
      "##inals": 6829,
      "inquiry": 6830,
      "##itors": 6831,
      "##ules": 6832,
      "##oph": 6833,
      "##ifies": 6834,
      "2019": 6835,
      "novel": 6836,
      "delay": 6837,
      "subsc": 6838,
      "identify": 6839,
      "Nether": 6840,
      "organisations": 6841,
      "Mosul": 6842,
      "recommendations": 6843,
      "LED": 6844,
      "##ipl": 6845,
      "##PC": 6846,
      "##hero": 6847,
      "##aded": 6848,
      "##abi": 6849,
      "congr": 6850,
      "##ounce": 6851,
      "##oba": 6852,
      "alleging": 6853,
      "buying": 6854,
      "strateg": 6855,
      "strength": 6856,
      "opener": 6857,
      "operators": 6858,
      "taxi": 6859,
      "failing": 6860,
      "policemen": 6861,
      "involving": 6862,
      "Record": 6863,
      "benefits": 6864,
      "Flor": 6865,
      "immediate": 6866,
      "politician": 6867,
      "Intelligence": 6868,
      "UAE": 6869,
      "Four": 6870,
      "Time": 6871,
      "zero": 6872,
      "##pro": 6873,
      "##askar": 6874,
      "steal": 6875,
      "##igarh": 6876,
      "##ections": 6877,
      "##udh": 6878,
      "ads": 6879,
      "Information": 6880,
      "##ansion": 6881,
      "kills": 6882,
      "effort": 6883,
      "trading": 6884,
      "measure": 6885,
      "rebel": 6886,
      "Ganga": 6887,
      "Jackson": 6888,
      "eyes": 6889,
      "teacher": 6890,
      "pregnant": 6891,
      "Djok": 6892,
      "4G": 6893,
      "AB": 6894,
      "marg": 6895,
      "##fan": 6896,
      "##OC": 6897,
      "##ective": 6898,
      "exist": 6899,
      "##avan": 6900,
      "decide": 6901,
      "cool": 6902,
      "##ocking": 6903,
      "2003": 6904,
      "streng": 6905,
      "referred": 6906,
      "attempted": 6907,
      "route": 6908,
      "destroyed": 6909,
      "constituency": 6910,
      "wireless": 6911,
      "Jadeja": 6912,
      "Netherlands": 6913,
      "congrat": 6914,
      "Djokovic": 6915,
      "Hall": 6916,
      "Kaur": 6917,
      "Tok": 6918,
      "dial": 6919,
      "finger": 6920,
      "##uan": 6921,
      "##cott": 6922,
      "##parat": 6923,
      "##ayan": 6924,
      "reward": 6925,
      "stick": 6926,
      "ask": 6927,
      "##opa": 6928,
      "spl": 6929,
      "unrest": 6930,
      "scre": 6931,
      "opt": 6932,
      "##force": 6933,
      "decade": 6934,
      "bridge": 6935,
      "passport": 6936,
      "violations": 6937,
      "broken": 6938,
      "Serena": 6939,
      "Sushant": 6940,
      "Jaipur": 6941,
      "##ecessary": 6942,
      "neighbour": 6943,
      "BMW": 6944,
      "Border": 6945,
      "Mush": 6946,
      "bit": 6947,
      "pool": 6948,
      "try": 6949,
      "wounded": 6950,
      "##gen": 6951,
      "##zen": 6952,
      "##EC": 6953,
      "##essed": 6954,
      "##though": 6955,
      "##istics": 6956,
      "separat": 6957,
      "Stan": 6958,
      "abroad": 6959,
      "annually": 6960,
      "airports": 6961,
      "follows": 6962,
      "Resp": 6963,
      "hosts": 6964,
      "falling": 6965,
      "street": 6966,
      "beginning": 6967,
      "motion": 6968,
      "effective": 6969,
      "shif": 6970,
      "Sidharth": 6971,
      "05": 6972,
      "kit": 6973,
      "##jection": 6974,
      "##orr": 6975,
      "##atri": 6976,
      "##enty": 6977,
      "overseas": 6978,
      "compr": 6979,
      "feat": 6980,
      "Airways": 6981,
      "technique": 6982,
      "breaking": 6983,
      "denomin": 6984,
      "motorc": 6985,
      "lawyer": 6986,
      "Linked": 6987,
      "corporate": 6988,
      "scenes": 6989,
      "Ranaut": 6990,
      "exemp": 6991,
      "headquarters": 6992,
      "Vietnam": 6993,
      "Bagh": 6994,
      "Fad": 6995,
      "Hosp": 6996,
      "Museum": 6997,
      "Sakshi": 6998,
      "hors": 6999,
      "rare": 7000,
      "##anath": 7001,
      "thousands": 7002,
      "style": 7003,
      "##igo": 7004,
      "##iform": 7005,
      "agitation": 7006,
      "lev": 7007,
      "##obs": 7008,
      "decades": 7009,
      "association": 7010,
      "##rows": 7011,
      "surpr": 7012,
      "facilit": 7013,
      "##kari": 7014,
      "sentence": 7015,
      "purp": 7016,
      "wallet": 7017,
      "eastern": 7018,
      "Metro": 7019,
      "WiFi": 7020,
      "analysts": 7021,
      "democracy": 7022,
      "convicted": 7023,
      "Bolt": 7024,
      "atmosphere": 7025,
      "LinkedIn": 7026,
      "Ta": 7027,
      "WB": 7028,
      "bik": 7029,
      "lines": 7030,
      "sending": 7031,
      "##nan": 7032,
      "##nown": 7033,
      "##inary": 7034,
      "##atra": 7035,
      "##atma": 7036,
      "##itage": 7037,
      "##chi": 7038,
      "##endum": 7039,
      "appr": 7040,
      "##achh": 7041,
      "Manoj": 7042,
      "assured": 7043,
      "mostly": 7044,
      "marked": 7045,
      "cafe": 7046,
      "launching": 7047,
      "artic": 7048,
      "shortage": 7049,
      "999": 7050,
      "memory": 7051,
      "attempts": 7052,
      "Solar": 7053,
      "Gautam": 7054,
      "FC": 7055,
      "Five": 7056,
      "Line": 7057,
      "Naj": 7058,
      "Rights": 7059,
      "pic": 7060,
      "tas": 7061,
      "umpire": 7062,
      "##tr": 7063,
      "##has": 7064,
      "##yond": 7065,
      "##ju": 7066,
      "thing": 7067,
      "beyond": 7068,
      "Char": 7069,
      "chair": 7070,
      "prec": 7071,
      "That": 7072,
      "governments": 7073,
      "carrier": 7074,
      "formation": 7075,
      "##abaddi": 7076,
      "experi": 7077,
      "referendum": 7078,
      "negoti": 7079,
      "mistake": 7080,
      "Industries": 7081,
      "Nawazuddin": 7082,
      "Ahmedabad": 7083,
      "analysis": 7084,
      "territory": 7085,
      "Jama": 7086,
      "Lim": 7087,
      "fo": 7088,
      "lights": 7089,
      "##ein": 7090,
      "##cher": 7091,
      "##bre": 7092,
      "##ayal": 7093,
      "##etary": 7094,
      "##anded": 7095,
      "shr": 7096,
      "cloth": 7097,
      "##eful": 7098,
      "##atson": 7099,
      "Americans": 7100,
      "Abu": 7101,
      "breaks": 7102,
      "platforms": 7103,
      "visiting": 7104,
      "Sony": 7105,
      "engineer": 7106,
      "Survey": 7107,
      "inaugurated": 7108,
      "Taylor": 7109,
      "Srinagar": 7110,
      "Prabhu": 7111,
      "Jeff": 7112,
      "Rand": 7113,
      "SU": 7114,
      "Watson": 7115,
      "aer": 7116,
      "##cement": 7117,
      "##idamb": 7118,
      "##ston": 7119,
      "##ources": 7120,
      "Station": 7121,
      "##ledon": 7122,
      "commander": 7123,
      "parent": 7124,
      "##screen": 7125,
      "debate": 7126,
      "boat": 7127,
      "membership": 7128,
      "patent": 7129,
      "discussed": 7130,
      "##imbledon": 7131,
      "conflict": 7132,
      "Lodha": 7133,
      "!!": 7134,
      "Ari": 7135,
      "Drav": 7136,
      "FB": 7137,
      "Fort": 7138,
      "Gram": 7139,
      "Hal": 7140,
      "Hard": 7141,
      "Mish": 7142,
      "Nik": 7143,
      "crop": 7144,
      "map": 7145,
      "roles": 7146,
      "tie": 7147,
      "##eor": 7148,
      "##uing": 7149,
      "##bur": 7150,
      "##EE": 7151,
      "saved": 7152,
      "##essor": 7153,
      "##osen": 7154,
      "prove": 7155,
      "##qual": 7156,
      "elimin": 7157,
      "Rajk": 7158,
      "imprison": 7159,
      "Leices": 7160,
      "nearby": 7161,
      "approves": 7162,
      "Music": 7163,
      "mode": 7164,
      "guard": 7165,
      "Madras": 7166,
      "About": 7167,
      "##rupt": 7168,
      "emot": 7169,
      "##idden": 7170,
      "Sania": 7171,
      "introduce": 7172,
      "standing": 7173,
      "consumers": 7174,
      "Kanpur": 7175,
      "retailer": 7176,
      "kidna": 7177,
      "venue": 7178,
      "##aviour": 7179,
      "spacecraft": 7180,
      "HT": 7181,
      "Wimbledon": 7182,
      "hate": 7183,
      "nan": 7184,
      "rup": 7185,
      "##ris": 7186,
      "##nels": 7187,
      "##raine": 7188,
      "complex": 7189,
      "pray": 7190,
      "env": 7191,
      "appe": 7192,
      "##mits": 7193,
      "quant": 7194,
      "assass": 7195,
      "Mahatma": 7196,
      "insul": 7197,
      "##pura": 7198,
      "sharehold": 7199,
      "initiated": 7200,
      "bills": 7201,
      "schemes": 7202,
      "regional": 7203,
      "harm": 7204,
      "surfaced": 7205,
      "batting": 7206,
      "logo": 7207,
      "renew": 7208,
      "bullet": 7209,
      "3rd": 7210,
      "Buff": 7211,
      "Je": 7212,
      "Let": 7213,
      "Pud": 7214,
      "Sant": 7215,
      "System": 7216,
      "nin": 7217,
      "pension": 7218,
      "##ruit": 7219,
      "##gar": 7220,
      "analy": 7221,
      "diss": 7222,
      "quot": 7223,
      "##urray": 7224,
      "2002": 7225,
      "followers": 7226,
      "autonom": 7227,
      "businessman": 7228,
      "##auri": 7229,
      "denies": 7230,
      "superhero": 7231,
      "liquid": 7232,
      "Dutch": 7233,
      "Municipal": 7234,
      "verd": 7235,
      "coalition": 7236,
      "swimming": 7237,
      "##eteran": 7238,
      "associated": 7239,
      "revolves": 7240,
      "jawans": 7241,
      "Tokyo": 7242,
      "Iv": 7243,
      "Mobile": 7244,
      "Rash": 7245,
      "cold": 7246,
      "master": 7247,
      "pending": 7248,
      "radi": 7249,
      "tell": 7250,
      "##lal": 7251,
      "##itual": 7252,
      "##estation": 7253,
      "altern": 7254,
      "height": 7255,
      "regime": 7256,
      "buses": 7257,
      "extend": 7258,
      "constitution": 7259,
      "Ramdev": 7260,
      "conducting": 7261,
      "##ommod": 7262,
      "Mohammed": 7263,
      "recognition": 7264,
      "NSG": 7265,
      "explosion": 7266,
      "apologised": 7267,
      "Naik": 7268,
      "##mnast": 7269,
      "felt": 7270,
      "Mishra": 7271,
      "Ev": 7272,
      "Hit": 7273,
      "Poll": 7274,
      "jets": 7275,
      "##uits": 7276,
      "##tler": 7277,
      "##PG": 7278,
      "##zy": 7279,
      "##imir": 7280,
      "exports": 7281,
      "agric": 7282,
      "pret": 7283,
      "worker": 7284,
      "##weight": 7285,
      "##ehold": 7286,
      "Ish": 7287,
      "1000": 7288,
      "130": 7289,
      "driven": 7290,
      "submar": 7291,
      "signs": 7292,
      "estate": 7293,
      "delivered": 7294,
      "Club": 7295,
      "happen": 7296,
      "sensitive": 7297,
      "Christian": 7298,
      "lifted": 7299,
      "Emma": 7300,
      "refugee": 7301,
      "Adityanath": 7302,
      "lyrics": 7303,
      "Xiaomi": 7304,
      "Leicester": 7305,
      "FA": 7306,
      "Qual": 7307,
      "Rishi": 7308,
      "icon": 7309,
      "ox": 7310,
      "##uate": 7311,
      "##uise": 7312,
      "##aar": 7313,
      "##pet": 7314,
      "beg": 7315,
      "Index": 7316,
      "exhibition": 7317,
      "spir": 7318,
      "recruit": 7319,
      "##lix": 7320,
      "enabled": 7321,
      "accommod": 7322,
      "weigh": 7323,
      "Executive": 7324,
      "emails": 7325,
      "urban": 7326,
      "Phot": 7327,
      "Justin": 7328,
      "##bassy": 7329,
      "religion": 7330,
      "Golden": 7331,
      "Terror": 7332,
      "Abdul": 7333,
      "distribution": 7334,
      "laptop": 7335,
      "Ukraine": 7336,
      "transgender": 7337,
      "Kurd": 7338,
      "maiden": 7339,
      "Ae": 7340,
      "Kher": 7341,
      "Ly": 7342,
      "Vlad": 7343,
      "bilateral": 7344,
      "##dd": 7345,
      "##makers": 7346,
      "##body": 7347,
      "##anna": 7348,
      "ones": 7349,
      "##rie": 7350,
      "##change": 7351,
      "shop": 7352,
      "##acks": 7353,
      "Thom": 7354,
      "Step": 7355,
      "##forcement": 7356,
      "posting": 7357,
      "Commer": 7358,
      "strugg": 7359,
      "factory": 7360,
      "identity": 7361,
      "courts": 7362,
      "occupied": 7363,
      "Liga": 7364,
      "MC": 7365,
      "Mil": 7366,
      "Owa": 7367,
      "SIM": 7368,
      "eld": 7369,
      "lists": 7370,
      "length": 7371,
      "ran": 7372,
      "##oji": 7373,
      "##CS": 7374,
      "often": 7375,
      "##owed": 7376,
      "chall": 7377,
      "filing": 7378,
      "arg": 7379,
      "decisions": 7380,
      "corr": 7381,
      "Saeed": 7382,
      "Malhot": 7383,
      "apex": 7384,
      "processor": 7385,
      "##iqui": 7386,
      "multi": 7387,
      "Kanhai": 7388,
      "struct": 7389,
      "prepared": 7390,
      "Udta": 7391,
      "Idea": 7392,
      "choose": 7393,
      "deceased": 7394,
      "Malhotra": 7395,
      "Aviation": 7396,
      "Murray": 7397,
      "Six": 7398,
      "yoga": 7399,
      "##eer": 7400,
      "##HO": 7401,
      "##anasi": 7402,
      "##osite": 7403,
      "##ucherry": 7404,
      "leaves": 7405,
      "##eeb": 7406,
      "scandal": 7407,
      "##ugu": 7408,
      "Kashmiri": 7409,
      "technical": 7410,
      "solid": 7411,
      "advis": 7412,
      "tracking": 7413,
      "Panama": 7414,
      "division": 7415,
      "volcan": 7416,
      "implemented": 7417,
      "Varanasi": 7418,
      "categories": 7419,
      "colleges": 7420,
      "Temple": 7421,
      "Puducherry": 7422,
      "verdict": 7423,
      "CA": 7424,
      "Tech": 7425,
      "gained": 7426,
      "hers": 7427,
      "hab": 7428,
      "tar": 7429,
      "tort": 7430,
      "##inks": 7431,
      "##asted": 7432,
      "##ersey": 7433,
      "chosen": 7434,
      "Thrones": 7435,
      "enable": 7436,
      "leads": 7437,
      "relief": 7438,
      "Swachh": 7439,
      "Nadal": 7440,
      "##rupted": 7441,
      "advanced": 7442,
      "##wara": 7443,
      "household": 7444,
      "Robert": 7445,
      "IAF": 7446,
      "Owaisi": 7447,
      "milk": 7448,
      "##ker": 7449,
      "##ae": 7450,
      "##bi": 7451,
      "##inema": 7452,
      "##ette": 7453,
      "##igar": 7454,
      "##iesel": 7455,
      "Prakash": 7456,
      "##bery": 7457,
      "clashes": 7458,
      "recre": 7459,
      "winners": 7460,
      "remote": 7461,
      "suprem": 7462,
      "explod": 7463,
      "looks": 7464,
      "looked": 7465,
      "slog": 7466,
      "sky": 7467,
      "letters": 7468,
      "Sonakshi": 7469,
      "apology": 7470,
      "oppon": 7471,
      "NATO": 7472,
      "crossed": 7473,
      "syn": 7474,
      "kilometre": 7475,
      "fulf": 7476,
      "Francisco": 7477,
      "hurt": 7478,
      "IMF": 7479,
      "dancing": 7480,
      "ancient": 7481,
      "Business": 7482,
      "premiere": 7483,
      "Vladimir": 7484,
      "Ax": 7485,
      "Moon": 7486,
      "Rog": 7487,
      "sam": 7488,
      "section": 7489,
      "vs": 7490,
      "##aed": 7491,
      "wasn": 7492,
      "##iana": 7493,
      "shirt": 7494,
      "undert": 7495,
      "Who": 7496,
      "write": 7497,
      "delayed": 7498,
      "polling": 7499,
      "grant": 7500,
      "demonstr": 7501,
      "Crime": 7502,
      "Plan": 7503,
      "behaviour": 7504,
      "opposed": 7505,
      "Iranian": 7506,
      "discusses": 7507,
      "McC": 7508,
      "exclus": 7509,
      "Mexican": 7510,
      "shift": 7511,
      "journalists": 7512,
      "thriller": 7513,
      "collaboration": 7514,
      "Nigeria": 7515,
      "predicted": 7516,
      "exercise": 7517,
      "##navis": 7518,
      "Fadnavis": 7519,
      "4th": 7520,
      "DC": 7521,
      "Gul": 7522,
      "Jain": 7523,
      "Lie": 7524,
      "ge": 7525,
      "hor": 7526,
      "ign": 7527,
      "rub": 7528,
      "wa": 7529,
      "##sy": 7530,
      "##ye": 7531,
      "##flix": 7532,
      "##jah": 7533,
      "##amous": 7534,
      "##emor": 7535,
      "upgr": 7536,
      "aband": 7537,
      "postp": 7538,
      "button": 7539,
      "imports": 7540,
      "Rahman": 7541,
      "boys": 7542,
      "obtain": 7543,
      "protesting": 7544,
      "engineering": 7545,
      "civilian": 7546,
      "automatically": 7547,
      "Addressing": 7548,
      "Peter": 7549,
      "Mission": 7550,
      "Mehbo": 7551,
      "Siddiqui": 7552,
      "mosqu": 7553,
      "Belgium": 7554,
      "Michel": 7555,
      "balance": 7556,
      "Censor": 7557,
      "Kanhaiya": 7558,
      "Bash": 7559,
      "Bob": 7560,
      "Camer": 7561,
      "Ever": 7562,
      "Ryan": 7563,
      "gre": 7564,
      "pm": 7565,
      "ring": 7566,
      "rather": 7567,
      "wishes": 7568,
      "##bar": 7569,
      "##atar": 7570,
      "##acco": 7571,
      "##ager": 7572,
      "proceed": 7573,
      "chocol": 7574,
      "upon": 7575,
      "Shak": 7576,
      "##phones": 7577,
      "suspect": 7578,
      "reading": 7579,
      "solution": 7580,
      "ODIs": 7581,
      "participants": 7582,
      "Padma": 7583,
      "Media": 7584,
      "meaning": 7585,
      "aggreg": 7586,
      "Tripura": 7587,
      "repeated": 7588,
      "helicopter": 7589,
      "bacteria": 7590,
      "Kaz": 7591,
      "Nax": 7592,
      "Sik": 7593,
      "council": 7594,
      "eating": 7595,
      "pit": 7596,
      "tear": 7597,
      "##ads": 7598,
      "bear": 7599,
      "##agon": 7600,
      "prohib": 7601,
      "hai": 7602,
      "laund": 7603,
      "##play": 7604,
      "fees": 7605,
      "termin": 7606,
      "powerful": 7607,
      "joining": 7608,
      "Hindus": 7609,
      "complained": 7610,
      "Snow": 7611,
      "bringing": 7612,
      "Francis": 7613,
      "frequ": 7614,
      "theatres": 7615,
      "Dip": 7616,
      "Jet": 7617,
      "PIL": 7618,
      "dub": 7619,
      "que": 7620,
      "type": 7621,
      "##eases": 7622,
      "##uti": 7623,
      "##iab": 7624,
      "##rif": 7625,
      "shaped": 7626,
      "proud": 7627,
      "Thacker": 7628,
      "##ghal": 7629,
      "perf": 7630,
      "coffee": 7631,
      "regist": 7632,
      "deficit": 7633,
      "smugg": 7634,
      "consult": 7635,
      "Rajiv": 7636,
      "surge": 7637,
      "operator": 7638,
      "##hesh": 7639,
      "statements": 7640,
      "Plus": 7641,
      "sells": 7642,
      "streets": 7643,
      "generate": 7644,
      "Kingdom": 7645,
      "surround": 7646,
      "encourage": 7647,
      "Koffee": 7648,
      "diagn": 7649,
      "IBM": 7650,
      "permanent": 7651,
      "tackle": 7652,
      "Budd": 7653,
      "Even": 7654,
      "Kings": 7655,
      "sectors": 7656,
      "##oi": 7657,
      "##hab": 7658,
      "##cot": 7659,
      "##zos": 7660,
      "##outs": 7661,
      "##ecast": 7662,
      "##rees": 7663,
      "isn": 7664,
      "Thank": 7665,
      "##soon": 7666,
      "##ression": 7667,
      "teach": 7668,
      "actually": 7669,
      "Leone": 7670,
      "Exchange": 7671,
      "missed": 7672,
      "trained": 7673,
      "hitting": 7674,
      "repair": 7675,
      "investigating": 7676,
      "Colle": 7677,
      "Netflix": 7678,
      "treated": 7679,
      "watching": 7680,
      "fighters": 7681,
      "Sudan": 7682,
      "primary": 7683,
      "Jawahar": 7684,
      "Venezuela": 7685,
      "Ek": 7686,
      "Jim": 7687,
      "MIT": 7688,
      "PE": 7689,
      "draft": 7690,
      "roo": 7691,
      "##rs": 7692,
      "##wear": 7693,
      "##anes": 7694,
      "##itary": 7695,
      "##eld": 7696,
      "##ecution": 7697,
      "forms": 7698,
      "##essions": 7699,
      "##ellers": 7700,
      "enjoy": 7701,
      "true": 7702,
      "accel": 7703,
      "ability": 7704,
      "diseases": 7705,
      "brands": 7706,
      "Rajput": 7707,
      "surve": 7708,
      "depart": 7709,
      "buildings": 7710,
      "Bezos": 7711,
      "concern": 7712,
      "classes": 7713,
      "Students": 7714,
      "select": 7715,
      "Bharati": 7716,
      "Design": 7717,
      "walking": 7718,
      "NDA": 7719,
      "romantic": 7720,
      "Rodr": 7721,
      "segment": 7722,
      "herself": 7723,
      "Mehbooba": 7724,
      "Thackeray": 7725,
      "bug": 7726,
      "eat": 7727,
      "rot": 7728,
      "##iest": 7729,
      "##iny": 7730,
      "##ishe": 7731,
      "rejects": 7732,
      "shops": 7733,
      "scra": 7734,
      "tea": 7735,
      "##ization": 7736,
      "Marsh": 7737,
      "assistant": 7738,
      "reveals": 7739,
      "operational": 7740,
      "legend": 7741,
      "valid": 7742,
      "effects": 7743,
      "Project": 7744,
      "directorial": 7745,
      "Directorate": 7746,
      "boxer": 7747,
      "fixed": 7748,
      "NDTV": 7749,
      "hundreds": 7750,
      "Hotel": 7751,
      "mixed": 7752,
      "volunte": 7753,
      "Dravid": 7754,
      "slogans": 7755,
      "Lady": 7756,
      "chip": 7757,
      "dues": 7758,
      "hung": 7759,
      "tells": 7760,
      "##mine": 7761,
      "##DA": 7762,
      "##eces": 7763,
      "##etisation": 7764,
      "##ensions": 7765,
      "##argo": 7766,
      "traff": 7767,
      "coaches": 7768,
      "suspects": 7769,
      "Atl": 7770,
      "valu": 7771,
      "1999": 7772,
      "Mahesh": 7773,
      "channels": 7774,
      "prepare": 7775,
      "lodged": 7776,
      "split": 7777,
      "CIA": 7778,
      "Din": 7779,
      "FDI": 7780,
      "Gates": 7781,
      "Mat": 7782,
      "OP": 7783,
      "Ocean": 7784,
      "Pixel": 7785,
      "TCS": 7786,
      "Vic": 7787,
      "jun": 7788,
      "tied": 7789,
      "##life": 7790,
      "##aani": 7791,
      "##mate": 7792,
      "##vis": 7793,
      "##gl": 7794,
      "##acle": 7795,
      "##iments": 7796,
      "##uten": 7797,
      "##ript": 7798,
      "##opper": 7799,
      "##endar": 7800,
      "plot": 7801,
      "invent": 7802,
      "Trade": 7803,
      "afford": 7804,
      "targets": 7805,
      "patient": 7806,
      "basket": 7807,
      "constructed": 7808,
      "bags": 7809,
      "riots": 7810,
      "screens": 7811,
      "Diesel": 7812,
      "Jobs": 7813,
      "Lah": 7814,
      "Ti": 7815,
      "bot": 7816,
      "besides": 7817,
      "fact": 7818,
      "ment": 7819,
      "sacked": 7820,
      "##uet": 7821,
      "##Plus": 7822,
      "##atab": 7823,
      "##omers": 7824,
      "##uct": 7825,
      "church": 7826,
      "Prad": 7827,
      "##chen": 7828,
      "##eft": 7829,
      "##sequ": 7830,
      "defin": 7831,
      "apart": 7832,
      "shooter": 7833,
      "Hyper": 7834,
      "painting": 7835,
      "##IMS": 7836,
      "machines": 7837,
      "Digital": 7838,
      "holiday": 7839,
      "certificate": 7840,
      "Florida": 7841,
      "SUV": 7842,
      "College": 7843,
      "LPG": 7844,
      "Near": 7845,
      "Ty": 7846,
      "Watch": 7847,
      "era": 7848,
      "grav": 7849,
      "mountain": 7850,
      "sure": 7851,
      "sends": 7852,
      "##mila": 7853,
      "##inst": 7854,
      "##estyle": 7855,
      "##ocal": 7856,
      "Inc": 7857,
      "expelled": 7858,
      "defaul": 7859,
      "assess": 7860,
      "direction": 7861,
      "warrant": 7862,
      "command": 7863,
      "speak": 7864,
      "headed": 7865,
      "everything": 7866,
      "##ielder": 7867,
      "equity": 7868,
      "heard": 7869,
      "north": 7870,
      "tradition": 7871,
      "keeping": 7872,
      "selection": 7873,
      "advertising": 7874,
      "fixing": 7875,
      "escape": 7876,
      "communication": 7877,
      "Vidya": 7878,
      "Gadkari": 7879,
      "envoy": 7880,
      "supremo": 7881,
      "Box": 7882,
      "Code": 7883,
      "Jud": 7884,
      "Rak": 7885,
      "Run": 7886,
      "Rij": 7887,
      "Was": 7888,
      "WHO": 7889,
      "mental": 7890,
      "tun": 7891,
      "##urities": 7892,
      "##illing": 7893,
      "anthem": 7894,
      "##uds": 7895,
      "upload": 7896,
      "Stand": 7897,
      "door": 7898,
      "approached": 7899,
      "locals": 7900,
      "guest": 7901,
      "formal": 7902,
      "requires": 7903,
      "hosting": 7904,
      "Blue": 7905,
      "damaged": 7906,
      "summit": 7907,
      "Speaker": 7908,
      "##nowled": 7909,
      "Malaysian": 7910,
      "Greece": 7911,
      "praised": 7912,
      "Ibrah": 7913,
      "CCTV": 7914,
      "clothing": 7915,
      "Buffett": 7916,
      "By": 7917,
      "Ball": 7918,
      "Cit": 7919,
      "Lad": 7920,
      "Nic": 7921,
      "bars": 7922,
      "cited": 7923,
      "cultural": 7924,
      "##rish": 7925,
      "##nu": 7926,
      "##face": 7927,
      "##oring": 7928,
      "whom": 7929,
      "conting": 7930,
      "crude": 7931,
      "Chidamb": 7932,
      "joins": 7933,
      "bigger": 7934,
      "violating": 7935,
      "quarterly": 7936,
      "AIIMS": 7937,
      "rounder": 7938,
      "couples": 7939,
      "viral": 7940,
      "Steel": 7941,
      "Farhan": 7942,
      "Nitin": 7943,
      "audio": 7944,
      "figure": 7945,
      "immigrants": 7946,
      "##opping": 7947,
      "documentary": 7948,
      "bottles": 7949,
      "##payee": 7950,
      "walked": 7951,
      "Rijiju": 7952,
      "Ibrahim": 7953,
      "AR": 7954,
      "Ath": 7955,
      "Gir": 7956,
      "Gos": 7957,
      "Mary": 7958,
      "Squ": 7959,
      "gap": 7960,
      "necessary": 7961,
      "wake": 7962,
      "##eding": 7963,
      "##aland": 7964,
      "##ecially": 7965,
      "##umer": 7966,
      "actions": 7967,
      "##endered": 7968,
      "##ivals": 7969,
      "##ardo": 7970,
      "Thar": 7971,
      "Story": 7972,
      "##onda": 7973,
      "options": 7974,
      "##ipal": 7975,
      "flu": 7976,
      "sexually": 7977,
      "equipped": 7978,
      "cashless": 7979,
      "tenure": 7980,
      "standard": 7981,
      "bombing": 7982,
      "batsmen": 7983,
      "suggests": 7984,
      "batteries": 7985,
      "Baba": 7986,
      "NGT": 7987,
      "temperatures": 7988,
      "belonging": 7989,
      "connectivity": 7990,
      "Abdullah": 7991,
      "tallest": 7992,
      "controversy": 7993,
      "Gayle": 7994,
      "Gambhir": 7995,
      "##utenant": 7996,
      "Chidambaram": 7997,
      "Bu": 7998,
      "Bir": 7999,
      "Dist": 8000,
      "Emp": 8001,
      "Gard": 8002,
      "Jo": 8003,
      "Jew": 8004,
      "Sl": 8005,
      "Toy": 8006,
      "cabinet": 8007,
      "eth": 8008,
      "eighth": 8009,
      "fiction": 8010,
      "ho": 8011,
      "##rase": 8012,
      "##care": 8013,
      "##jo": 8014,
      "##xic": 8015,
      "##enged": 8016,
      "whole": 8017,
      "Cha": 8018,
      "unique": 8019,
      "disaster": 8020,
      "disabled": 8021,
      "else": 8022,
      "Environment": 8023,
      "auto": 8024,
      "drunk": 8025,
      "Janata": 8026,
      "Syd": 8027,
      "Playing": 8028,
      "villagers": 8029,
      "pattern": 8030,
      "concerned": 8031,
      "Shivpal": 8032,
      "streaming": 8033,
      "destination": 8034,
      "Federal": 8035,
      "Messenger": 8036,
      "originally": 8037,
      "##ICI": 8038,
      "sanction": 8039,
      "environmental": 8040,
      "molestation": 8041,
      "Swedish": 8042,
      "particular": 8043,
      "ICICI": 8044,
      "##bhajan": 8045,
      "Saina": 8046,
      "Vishal": 8047,
      "Baghd": 8048,
      "Hospital": 8049,
      "ninth": 8050,
      "AC": 8051,
      "HP": 8052,
      "Maur": 8053,
      "Sour": 8054,
      "dual": 8055,
      "gaming": 8056,
      "sides": 8057,
      "##upp": 8058,
      "##kil": 8059,
      "##keeper": 8060,
      "##gor": 8061,
      "##cos": 8062,
      "##jan": 8063,
      "##II": 8064,
      "##oul": 8065,
      "onto": 8066,
      "orbit": 8067,
      "##ava": 8068,
      "scul": 8069,
      "Arn": 8070,
      "##aires": 8071,
      "Mann": 8072,
      "discover": 8073,
      "##vijay": 8074,
      "numerous": 8075,
      "cheating": 8076,
      "marathon": 8077,
      "donated": 8078,
      "owns": 8079,
      "advised": 8080,
      "corrupt": 8081,
      "fields": 8082,
      "Championships": 8083,
      "##standing": 8084,
      "absol": 8085,
      "arrived": 8086,
      "Calling": 8087,
      "cycl": 8088,
      "Krishna": 8089,
      "##mohan": 8090,
      "gymnast": 8091,
      "Tribunal": 8092,
      "Reddy": 8093,
      "entrepreneurs": 8094,
      "especially": 8095,
      "kilograms": 8096,
      "Jawaharlal": 8097,
      "Sydney": 8098,
      "Cur": 8099,
      "JP": 8100,
      "Pur": 8101,
      "Puj": 8102,
      "Tinder": 8103,
      "Wall": 8104,
      "sac": 8105,
      "##zi": 8106,
      "##ications": 8107,
      "stamp": 8108,
      "##oser": 8109,
      "##ellor": 8110,
      "##ugram": 8111,
      "percent": 8112,
      "opin": 8113,
      "##ieber": 8114,
      "##ferred": 8115,
      "##iously": 8116,
      "raids": 8117,
      "140": 8118,
      "##wala": 8119,
      "Poland": 8120,
      "suspension": 8121,
      "Abb": 8122,
      "Virgin": 8123,
      "advoc": 8124,
      "advance": 8125,
      "Allah": 8126,
      "targeting": 8127,
      "##onym": 8128,
      "Khal": 8129,
      "print": 8130,
      "educational": 8131,
      "resulted": 8132,
      "##oeing": 8133,
      "reducing": 8134,
      "Yogi": 8135,
      "##queline": 8136,
      "PoK": 8137,
      "DRS": 8138,
      "imprisonment": 8139,
      "Did": 8140,
      "Div": 8141,
      "Dani": 8142,
      "egg": 8143,
      "##nb": 8144,
      "##bl": 8145,
      "stone": 8146,
      "ang": 8147,
      "Indira": 8148,
      "academ": 8149,
      "##iful": 8150,
      "seiz": 8151,
      "191": 8152,
      "manner": 8153,
      "ending": 8154,
      "surged": 8155,
      "planes": 8156,
      "180": 8157,
      "Kashyap": 8158,
      "approach": 8159,
      "suspic": 8160,
      "colours": 8161,
      "Financ": 8162,
      "sitting": 8163,
      "standards": 8164,
      "objects": 8165,
      "animated": 8166,
      "screening": 8167,
      "midnight": 8168,
      "Gurugram": 8169,
      "drops": 8170,
      "languages": 8171,
      "Berlin": 8172,
      "opportunity": 8173,
      "Jacqueline": 8174,
      "Bul": 8175,
      "Icel": 8176,
      "Omar": 8177,
      "Ren": 8178,
      "Way": 8179,
      "cops": 8180,
      "cycle": 8181,
      "mort": 8182,
      "van": 8183,
      "waves": 8184,
      "##iency": 8185,
      "##RI": 8186,
      "##NL": 8187,
      "##alan": 8188,
      "##ods": 8189,
      "choice": 8190,
      "trillion": 8191,
      "applied": 8192,
      "accur": 8193,
      "190": 8194,
      "##ipe": 8195,
      "capture": 8196,
      "blasts": 8197,
      "expansion": 8198,
      "underwater": 8199,
      "Alph": 8200,
      "Enter": 8201,
      "News": 8202,
      "vision": 8203,
      "refund": 8204,
      "explores": 8205,
      "covering": 8206,
      "artists": 8207,
      "formally": 8208,
      "demonetised": 8209,
      "Harbhajan": 8210,
      "celebrating": 8211,
      "severe": 8212,
      "reacts": 8213,
      "entertainment": 8214,
      "participating": 8215,
      "medalist": 8216,
      "printing": 8217,
      "basic": 8218,
      "Phog": 8219,
      "Chet": 8220,
      "accidents": 8221,
      "Devgn": 8222,
      "burning": 8223,
      "settlement": 8224,
      "##ibrary": 8225,
      "spectrum": 8226,
      "bombs": 8227,
      "Mushkil": 8228,
      "challenged": 8229,
      "Iceland": 8230,
      "Bern": 8231,
      "Gan": 8232,
      "cigar": 8233,
      "dump": 8234,
      "dict": 8235,
      "mouth": 8236,
      "purs": 8237,
      "south": 8238,
      "##AN": 8239,
      "##chay": 8240,
      "##ppers": 8241,
      "comprom": 8242,
      "Intel": 8243,
      "medall": 8244,
      "conspir": 8245,
      "Khanna": 8246,
      "confident": 8247,
      "Conn": 8248,
      "landed": 8249,
      "##aksh": 8250,
      "musical": 8251,
      "OnePlus": 8252,
      "finding": 8253,
      "experts": 8254,
      "murdered": 8255,
      "##lusion": 8256,
      "Irr": 8257,
      "partnered": 8258,
      "Philippine": 8259,
      "mentioned": 8260,
      "Befik": 8261,
      "Phogat": 8262,
      "AM": 8263,
      "Bull": 8264,
      "Boeing": 8265,
      "Holl": 8266,
      "Mother": 8267,
      "Pen": 8268,
      "kiss": 8269,
      "pizza": 8270,
      "sized": 8271,
      "##Go": 8272,
      "##TE": 8273,
      "##heast": 8274,
      "islands": 8275,
      "plus": 8276,
      "cler": 8277,
      "recording": 8278,
      "Street": 8279,
      "allot": 8280,
      "trapped": 8281,
      "singles": 8282,
      "Kevin": 8283,
      "Tej": 8284,
      "beaten": 8285,
      "veget": 8286,
      "##rimination": 8287,
      "##break": 8288,
      "Bieber": 8289,
      "Cold": 8290,
      "GPS": 8291,
      "Kabaddi": 8292,
      "Liber": 8293,
      "MH": 8294,
      "path": 8295,
      "rich": 8296,
      "##nagar": 8297,
      "##Ch": 8298,
      "##hem": 8299,
      "##inance": 8300,
      "##onetisation": 8301,
      "inmates": 8302,
      "##igil": 8303,
      "adds": 8304,
      "##ellow": 8305,
      "uniform": 8306,
      "attention": 8307,
      "protot": 8308,
      "interests": 8309,
      "transform": 8310,
      "refl": 8311,
      "headset": 8312,
      "breach": 8313,
      "difference": 8314,
      "declare": 8315,
      "critical": 8316,
      "participation": 8317,
      "Vijender": 8318,
      "referring": 8319,
      "changing": 8320,
      "boxing": 8321,
      "Devendra": 8322,
      "challenging": 8323,
      "rooms": 8324,
      "withdrawn": 8325,
      "floods": 8326,
      "theatre": 8327,
      "Lieutenant": 8328,
      "Dipa": 8329,
      "dubbed": 8330,
      "Financial": 8331,
      "Bin": 8332,
      "Dri": 8333,
      "ED": 8334,
      "Hiz": 8335,
      "Lt": 8336,
      "MW": 8337,
      "Old": 8338,
      "Santa": 8339,
      "turb": 8340,
      "welfare": 8341,
      "##known": 8342,
      "##knowled": 8343,
      "##Le": 8344,
      "##ito": 8345,
      "##struc": 8346,
      "##otic": 8347,
      "##verse": 8348,
      "beating": 8349,
      "beauty": 8350,
      "##igen": 8351,
      "##imal": 8352,
      "##oca": 8353,
      "contains": 8354,
      "##ibly": 8355,
      "expert": 8356,
      "demol": 8357,
      "meals": 8358,
      "passw": 8359,
      "Karun": 8360,
      "taka": 8361,
      "missiles": 8362,
      "violent": 8363,
      "Scott": 8364,
      "continues": 8365,
      "sugar": 8366,
      "acquire": 8367,
      "Peace": 8368,
      "##ception": 8369,
      "Mohan": 8370,
      "molec": 8371,
      "searched": 8372,
      "influence": 8373,
      "Hitler": 8374,
      "Commerce": 8375,
      "elder": 8376,
      "##uetooth": 8377,
      "##gorith": 8378,
      "Pujara": 8379,
      "Hur": 8380,
      "Jam": 8381,
      "NH": 8382,
      "Youn": 8383,
      "furn": 8384,
      "##de": 8385,
      "##rated": 8386,
      "##Book": 8387,
      "##writ": 8388,
      "##acement": 8389,
      "##rio": 8390,
      "##riya": 8391,
      "fires": 8392,
      "##ubali": 8393,
      "troub": 8394,
      "regions": 8395,
      "posters": 8396,
      "raid": 8397,
      "operate": 8398,
      "Anderson": 8399,
      "##alkeeper": 8400,
      "employment": 8401,
      "emoji": 8402,
      "Norway": 8403,
      "registering": 8404,
      "boycott": 8405,
      "Chandra": 8406,
      "Dalits": 8407,
      "##autiful": 8408,
      "deposit": 8409,
      "##rooms": 8410,
      "reserves": 8411,
      "transaction": 8412,
      "window": 8413,
      "calc": 8414,
      "organisers": 8415,
      "recalled": 8416,
      "waiting": 8417,
      "federal": 8418,
      "Libya": 8419,
      "brief": 8420,
      "Nazi": 8421,
      "motorcycle": 8422,
      "Bharatiya": 8423,
      "BBC": 8424,
      "Dan": 8425,
      "Eli": 8426,
      "Freedom": 8427,
      "Jab": 8428,
      "Jones": 8429,
      "ON": 8430,
      "Tor": 8431,
      "fram": 8432,
      "tent": 8433,
      "##kin": 8434,
      "tob": 8435,
      "##ument": 8436,
      "##chair": 8437,
      "##abet": 8438,
      "notification": 8439,
      "Pres": 8440,
      "##oko": 8441,
      "##ideen": 8442,
      "offensive": 8443,
      "##reek": 8444,
      "##arkar": 8445,
      "foundation": 8446,
      "Energy": 8447,
      "Form": 8448,
      "##overty": 8449,
      "Swift": 8450,
      "metal": 8451,
      "##ifications": 8452,
      "infilt": 8453,
      "moves": 8454,
      "reacted": 8455,
      "Jaya": 8456,
      "Ashok": 8457,
      "doubled": 8458,
      "##intend": 8459,
      "brothers": 8460,
      "audience": 8461,
      "independence": 8462,
      "##rogen": 8463,
      "politicians": 8464,
      "collapsed": 8465,
      "casualties": 8466,
      "triggered": 8467,
      "registration": 8468,
      "Bey": 8469,
      "Gav": 8470,
      "Hood": 8471,
      "Jup": 8472,
      "Live": 8473,
      "Nok": 8474,
      "Root": 8475,
      "Tex": 8476,
      "Ul": 8477,
      "cens": 8478,
      "ease": 8479,
      "gest": 8480,
      "gift": 8481,
      "hired": 8482,
      "vul": 8483,
      "##eries": 8484,
      "##oral": 8485,
      "##abilities": 8486,
      "##osure": 8487,
      "exams": 8488,
      "Chap": 8489,
      "clash": 8490,
      "##ahubali": 8491,
      "##anti": 8492,
      "apply": 8493,
      "Arora": 8494,
      "decor": 8495,
      "Managing": 8496,
      "Manmohan": 8497,
      "airb": 8498,
      "developers": 8499,
      "funded": 8500,
      "sixes": 8501,
      "qualify": 8502,
      "liter": 8503,
      "Filmfare": 8504,
      "Mujah": 8505,
      "grounds": 8506,
      "summon": 8507,
      "Baahubali": 8508,
      "secretary": 8509,
      "##ragon": 8510,
      "surpassed": 8511,
      "samples": 8512,
      "Daniel": 8513,
      "conspiracy": 8514,
      "tobacco": 8515,
      "Audi": 8516,
      "Erd": 8517,
      "Fern": 8518,
      "Fox": 8519,
      "Huss": 8520,
      "Wani": 8521,
      "##dh": 8522,
      "##ales": 8523,
      "##ilot": 8524,
      "##icon": 8525,
      "algorith": 8526,
      "##thi": 8527,
      "##aine": 8528,
      "##ategy": 8529,
      "recyc": 8530,
      "Goel": 8531,
      "consol": 8532,
      "##ologists": 8533,
      "impose": 8534,
      "##brid": 8535,
      "##uke": 8536,
      "strategy": 8537,
      "larger": 8538,
      "nationals": 8539,
      "engaged": 8540,
      "Harvard": 8541,
      "Parliamentary": 8542,
      "finds": 8543,
      "barred": 8544,
      "nomination": 8545,
      "McG": 8546,
      "attempting": 8547,
      "##regular": 8548,
      "elements": 8549,
      "restrictions": 8550,
      "pieces": 8551,
      "Axis": 8552,
      "chocolate": 8553,
      "Irrfan": 8554,
      "Befikre": 8555,
      "Hizbul": 8556,
      "Jupiter": 8557,
      "Billion": 8558,
      "Coll": 8559,
      "Jit": 8560,
      "Yash": 8561,
      "coun": 8562,
      "cinema": 8563,
      "gown": 8564,
      "powers": 8565,
      "##ek": 8566,
      "##uis": 8567,
      "##bal": 8568,
      "##hend": 8569,
      "##illance": 8570,
      "alum": 8571,
      "##unched": 8572,
      "##oured": 8573,
      "##ollo": 8574,
      "accomp": 8575,
      "Store": 8576,
      "##hani": 8577,
      "Ann": 8578,
      "decre": 8579,
      "##ocket": 8580,
      "flow": 8581,
      "billionaire": 8582,
      "##auvery": 8583,
      "Sharmila": 8584,
      "extension": 8585,
      "Science": 8586,
      "displays": 8587,
      "qualified": 8588,
      "messaging": 8589,
      "Palace": 8590,
      "illegally": 8591,
      "greatest": 8592,
      "materials": 8593,
      "comedian": 8594,
      "irregular": 8595,
      "Digvijay": 8596,
      "magnitude": 8597,
      "Electron": 8598,
      "dangerous": 8599,
      "pledged": 8600,
      "Colombia": 8601,
      "strategic": 8602,
      "Limited": 8603,
      "Hussain": 8604,
      "Dad": 8605,
      "Math": 8606,
      "Pas": 8607,
      "Qaed": 8608,
      "Rup": 8609,
      "ess": 8610,
      "pa": 8611,
      "pink": 8612,
      "royal": 8613,
      "##ygen": 8614,
      "##isb": 8615,
      "##eci": 8616,
      "##iro": 8617,
      "beef": 8618,
      "##raham": 8619,
      "proced": 8620,
      "##ivic": 8621,
      "notices": 8622,
      "Chrome": 8623,
      "Arch": 8624,
      "Trin": 8625,
      "##ovo": 8626,
      "discrimination": 8627,
      "producing": 8628,
      "institution": 8629,
      "detected": 8630,
      "singing": 8631,
      "signals": 8632,
      "titles": 8633,
      "entities": 8634,
      "farmer": 8635,
      "Myn": 8636,
      "Telugu": 8637,
      "Azad": 8638,
      "jumped": 8639,
      "Batting": 8640,
      "Apollo": 8641,
      "executives": 8642,
      "Airbnb": 8643,
      "sustain": 8644,
      "Qaeda": 8645,
      "Aj": 8646,
      "Fre": 8647,
      "Haf": 8648,
      "Jord": 8649,
      "Late": 8650,
      "Later": 8651,
      "Sel": 8652,
      "Vad": 8653,
      "brows": 8654,
      "fert": 8655,
      "lender": 8656,
      "rolled": 8657,
      "san": 8658,
      "sla": 8659,
      "ships": 8660,
      "tiger": 8661,
      "##then": 8662,
      "##oons": 8663,
      "##pa": 8664,
      "##St": 8665,
      "##orp": 8666,
      "##ults": 8667,
      "##aga": 8668,
      "##ago": 8669,
      "acknowled": 8670,
      "##ounds": 8671,
      "trolled": 8672,
      "##icksh": 8673,
      "##under": 8674,
      "attached": 8675,
      "Ang": 8676,
      "announce": 8677,
      "monsoon": 8678,
      "develops": 8679,
      "donations": 8680,
      "##ruption": 8681,
      "advice": 8682,
      "replied": 8683,
      "communities": 8684,
      "opposite": 8685,
      "streak": 8686,
      "1984": 8687,
      "accidentally": 8688,
      "label": 8689,
      "massive": 8690,
      "homeless": 8691,
      "##bourne": 8692,
      "Urban": 8693,
      "##loop": 8694,
      "Abhishe": 8695,
      "Somal": 8696,
      "gifts": 8697,
      "temporary": 8698,
      "WWE": 8699,
      "Wiki": 8700,
      "Nokia": 8701,
      "Mujahideen": 8702,
      "Abhishek": 8703,
      "Cost": 8704,
      "Cath": 8705,
      "Fem": 8706,
      "Journ": 8707,
      "Joe": 8708,
      "Kish": 8709,
      "Pass": 8710,
      "famous": 8711,
      "kin": 8712,
      "psy": 8713,
      "##PI": 8714,
      "##jot": 8715,
      "##asw": 8716,
      "##asy": 8717,
      "##itarian": 8718,
      "stuck": 8719,
      "##asha": 8720,
      "unknown": 8721,
      "Management": 8722,
      "defending": 8723,
      "Amrit": 8724,
      "metro": 8725,
      "Andre": 8726,
      "legs": 8727,
      "switch": 8728,
      "##earcher": 8729,
      "##kaiah": 8730,
      "boyfriend": 8731,
      "patri": 8732,
      "writing": 8733,
      "Recently": 8734,
      "likes": 8735,
      "parking": 8736,
      "minority": 8737,
      "premium": 8738,
      "Venkaiah": 8739,
      "Vikas": 8740,
      "opportunities": 8741,
      "HDFC": 8742,
      "hopes": 8743,
      "strengthen": 8744,
      "oxygen": 8745,
      "Roger": 8746,
      "surveillance": 8747,
      "contingent": 8748,
      "sculpt": 8749,
      "Cauvery": 8750,
      "Gha": 8751,
      "Hung": 8752,
      "Ky": 8753,
      "Rome": 8754,
      "UE": 8755,
      "Wrest": 8756,
      "Zind": 8757,
      "fought": 8758,
      "pact": 8759,
      "wine": 8760,
      "##kha": 8761,
      "##Jet": 8762,
      "##onc": 8763,
      "##ortion": 8764,
      "ink": 8765,
      "##esty": 8766,
      "##ineet": 8767,
      "appar": 8768,
      "unable": 8769,
      "attending": 8770,
      "invite": 8771,
      "Common": 8772,
      "Leon": 8773,
      "provider": 8774,
      "banning": 8775,
      "commemor": 8776,
      "refuses": 8777,
      "##oleum": 8778,
      "parade": 8779,
      "corresp": 8780,
      "networks": 8781,
      "booking": 8782,
      "##alaq": 8783,
      "Ranji": 8784,
      "revised": 8785,
      "robots": 8786,
      "sensor": 8787,
      "measuring": 8788,
      "semif": 8789,
      "examination": 8790,
      "##adeshi": 8791,
      "Hero": 8792,
      "generated": 8793,
      "favourite": 8794,
      "restricted": 8795,
      "Melbourne": 8796,
      "Responding": 8797,
      "autonomous": 8798,
      "Hyperloop": 8799,
      "Bri": 8800,
      "Boy": 8801,
      "FY": 8802,
      "Rain": 8803,
      "Tam": 8804,
      "Western": 8805,
      "dream": 8806,
      "liber": 8807,
      "vess": 8808,
      "ways": 8809,
      "##yal": 8810,
      "##Cap": 8811,
      "##era": 8812,
      "theft": 8813,
      "##iable": 8814,
      "##ulating": 8815,
      "##hik": 8816,
      "goalkeeper": 8817,
      "##upam": 8818,
      "scrap": 8819,
      "elig": 8820,
      "consists": 8821,
      "Adarsh": 8822,
      "arrests": 8823,
      "knock": 8824,
      "Andy": 8825,
      "Mayor": 8826,
      "urges": 8827,
      "hackers": 8828,
      "Market": 8829,
      "Valent": 8830,
      "branches": 8831,
      "Raghuram": 8832,
      "Cuba": 8833,
      "diamond": 8834,
      "Palestin": 8835,
      "punishment": 8836,
      "stealing": 8837,
      "Thomas": 8838,
      "##Leaks": 8839,
      "Texas": 8840,
      "WikiLeaks": 8841,
      "Broad": 8842,
      "Dear": 8843,
      "Gil": 8844,
      "Gun": 8845,
      "Jul": 8846,
      "Ox": 8847,
      "Papers": 8848,
      "Since": 8849,
      "Tower": 8850,
      "Youth": 8851,
      "gri": 8852,
      "hidden": 8853,
      "jersey": 8854,
      "turning": 8855,
      "##tty": 8856,
      "##BT": 8857,
      "##few": 8858,
      "##cr": 8859,
      "##xual": 8860,
      "##asp": 8861,
      "Theres": 8862,
      "##eart": 8863,
      "##odh": 8864,
      "agree": 8865,
      "compar": 8866,
      "pricing": 8867,
      "##avati": 8868,
      "universe": 8869,
      "Shri": 8870,
      "##onder": 8871,
      "Antar": 8872,
      "mining": 8873,
      "##ancellor": 8874,
      "background": 8875,
      "160": 8876,
      "Engine": 8877,
      "camps": 8878,
      "heads": 8879,
      "violated": 8880,
      "Northern": 8881,
      "##apping": 8882,
      "sense": 8883,
      "younger": 8884,
      "misle": 8885,
      "badminton": 8886,
      "wrestling": 8887,
      "garner": 8888,
      "Sandeep": 8889,
      "containing": 8890,
      "Paralympic": 8891,
      "branch": 8892,
      "converted": 8893,
      "Najeeb": 8894,
      "opinion": 8895,
      "Theresa": 8896,
      "Dway": 8897,
      "Its": 8898,
      "Li": 8899,
      "Mount": 8900,
      "NIT": 8901,
      "bout": 8902,
      "cyl": 8903,
      "luck": 8904,
      "mel": 8905,
      "##iece": 8906,
      "##fol": 8907,
      "##esc": 8908,
      "##arant": 8909,
      "##amin": 8910,
      "##acher": 8911,
      "##ushan": 8912,
      "computers": 8913,
      "##orders": 8914,
      "usually": 8915,
      "spr": 8916,
      "##ailing": 8917,
      "##identified": 8918,
      "Str": 8919,
      "carmaker": 8920,
      "Ans": 8921,
      "Maruti": 8922,
      "remake": 8923,
      "highway": 8924,
      "collapse": 8925,
      "signing": 8926,
      "professor": 8927,
      "marry": 8928,
      "breath": 8929,
      "UPA": 8930,
      "selfies": 8931,
      "respective": 8932,
      "engineers": 8933,
      "450": 8934,
      "##ridi": 8935,
      "iPhones": 8936,
      "Chandigarh": 8937,
      "Ravindra": 8938,
      "Neer": 8939,
      "responding": 8940,
      "deposited": 8941,
      "caste": 8942,
      "updated": 8943,
      "restaurants": 8944,
      "package": 8945,
      "poison": 8946,
      "transferred": 8947,
      "licence": 8948,
      "premises": 8949,
      "diplomatic": 8950,
      "delegation": 8951,
      "universities": 8952,
      "Lahore": 8953,
      "Digvijaya": 8954,
      "UEFA": 8955,
      "Dwayne": 8956,
      "Ju": 8957,
      "Jon": 8958,
      "Lew": 8959,
      "Left": 8960,
      "Middle": 8961,
      "Rem": 8962,
      "Yoj": 8963,
      "coc": 8964,
      "eve": 8965,
      "foss": 8966,
      "grab": 8967,
      "hun": 8968,
      "##fund": 8969,
      "##Donald": 8970,
      "##16": 8971,
      "##EA": 8972,
      "##etime": 8973,
      "##aman": 8974,
      "forg": 8975,
      "##earing": 8976,
      "##ifer": 8977,
      "worn": 8978,
      "spy": 8979,
      "expenses": 8980,
      "creation": 8981,
      "supports": 8982,
      "meal": 8983,
      "125": 8984,
      "returning": 8985,
      "thereby": 8986,
      "delivers": 8987,
      "subject": 8988,
      "confidence": 8989,
      "eventually": 8990,
      "Saf": 8991,
      "affili": 8992,
      "fails": 8993,
      "##wari": 8994,
      "celebration": 8995,
      "deadline": 8996,
      "Claim": 8997,
      "acquit": 8998,
      "Bangladeshi": 8999,
      "Smriti": 9000,
      "citizen": 9001,
      "regulations": 9002,
      "auctioned": 9003,
      "tribal": 9004,
      "concent": 9005,
      "Ratna": 9006,
      "illness": 9007,
      "Navjot": 9008,
      "Consumer": 9009,
      "Pandey": 9010,
      "Denmark": 9011,
      "waters": 9012,
      "Grammy": 9013,
      "rupee": 9014,
      "basketball": 9015,
      "Tharoor": 9016,
      "ONGC": 9017,
      "##ickshaw": 9018,
      "*(": 9019,
      "Boss": 9020,
      "Fan": 9021,
      "Faw": 9022,
      "Hockey": 9023,
      "Your": 9024,
      "fa": 9025,
      "hi": 9026,
      "ocean": 9027,
      "##ients": 9028,
      "##bage": 9029,
      "##IV": 9030,
      "##ori": 9031,
      "##oram": 9032,
      "##orted": 9033,
      "##aration": 9034,
      "##star": 9035,
      "##umes": 9036,
      "##enditure": 9037,
      "orb": 9038,
      "researcher": 9039,
      "Stock": 9040,
      "union": 9041,
      "192": 9042,
      "Revenue": 9043,
      "blocks": 9044,
      "mini": 9045,
      "serves": 9046,
      "##uki": 9047,
      "interim": 9048,
      "visas": 9049,
      "Death": 9050,
      "Shetty": 9051,
      "priest": 9052,
      "Meghal": 9053,
      "proposes": 9054,
      "Coal": 9055,
      "celebrates": 9056,
      "putting": 9057,
      "promotional": 9058,
      "Suz": 9059,
      "##arajan": 9060,
      "memorial": 9061,
      "travelled": 9062,
      "practices": 9063,
      "Return": 9064,
      "tariff": 9065,
      "Nearly": 9066,
      "Meghalaya": 9067,
      "Cond": 9068,
      "Han": 9069,
      "Kunal": 9070,
      "Puri": 9071,
      "Tre": 9072,
      "Tele": 9073,
      "bic": 9074,
      "hole": 9075,
      "rains": 9076,
      "ut": 9077,
      "##tics": 9078,
      "##roleum": 9079,
      "##fisher": 9080,
      "theory": 9081,
      "##atia": 9082,
      "toy": 9083,
      "toler": 9084,
      "##idhi": 9085,
      "##olic": 9086,
      "##ryp": 9087,
      "recovery": 9088,
      "unan": 9089,
      "secured": 9090,
      "starred": 9091,
      "undergoing": 9092,
      "fled": 9093,
      "Afridi": 9094,
      "##auts": 9095,
      "warns": 9096,
      "promises": 9097,
      "photographer": 9098,
      "ISS": 9099,
      "require": 9100,
      "Ranchi": 9101,
      "Sebi": 9102,
      "deliveries": 9103,
      "litres": 9104,
      "Muh": 9105,
      "challenges": 9106,
      "artistes": 9107,
      "mistaken": 9108,
      "monitoring": 9109,
      "swimmer": 9110,
      "wheelchair": 9111,
      "fleet": 9112,
      "mosque": 9113,
      "piece": 9114,
      "borrow": 9115,
      "southern": 9116,
      "facilitate": 9117,
      "abandoned": 9118,
      "valuable": 9119,
      "junior": 9120,
      "Sourav": 9121,
      "Gavaskar": 9122,
      "Hen": 9123,
      "Lash": 9124,
      "Nair": 9125,
      "Pitt": 9126,
      "Vas": 9127,
      "datab": 9128,
      "god": 9129,
      "lake": 9130,
      "pays": 9131,
      "tamp": 9132,
      "talaq": 9133,
      "##wami": 9134,
      "##fers": 9135,
      "##IF": 9136,
      "##MA": 9137,
      "thus": 9138,
      "threw": 9139,
      "##acc": 9140,
      "feels": 9141,
      "Marc": 9142,
      "defec": 9143,
      "developer": 9144,
      "Administ": 9145,
      "##comm": 9146,
      "differently": 9147,
      "##afe": 9148,
      "revolution": 9149,
      "cutting": 9150,
      "northern": 9151,
      "Azam": 9152,
      "jailed": 9153,
      "Auto": 9154,
      "displayed": 9155,
      "housing": 9156,
      "Kingfisher": 9157,
      "honoured": 9158,
      "showcased": 9159,
      "Kiran": 9160,
      "MacBook": 9161,
      "resolve": 9162,
      "floating": 9163,
      "prototype": 9164,
      "Hooda": 9165,
      "Myntra": 9166,
      "..": 9167,
      "Aar": 9168,
      "Bed": 9169,
      "Cz": 9170,
      "Count": 9171,
      "Jen": 9172,
      "Len": 9173,
      "Person": 9174,
      "Sou": 9175,
      "Yam": 9176,
      "aide": 9177,
      "domin": 9178,
      "fro": 9179,
      "fab": 9180,
      "mun": 9181,
      "neck": 9182,
      "##well": 9183,
      "##OI": 9184,
      "toxic": 9185,
      "thin": 9186,
      "stri": 9187,
      "##umed": 9188,
      "##oda": 9189,
      "##ifier": 9190,
      "Thir": 9191,
      "Inn": 9192,
      "accusing": 9193,
      "##oody": 9194,
      "electr": 9195,
      "quits": 9196,
      "##amilton": 9197,
      "impair": 9198,
      "endors": 9199,
      "##print": 9200,
      "visual": 9201,
      "shoulder": 9202,
      "cheap": 9203,
      "profits": 9204,
      "ballistic": 9205,
      "##irthday": 9206,
      "Prof": 9207,
      "ranking": 9208,
      "musc": 9209,
      "reaching": 9210,
      "shuttler": 9211,
      "Moto": 9212,
      "vacc": 9213,
      "escaped": 9214,
      "Aadmi": 9215,
      "surviv": 9216,
      "survived": 9217,
      "apologise": 9218,
      "maintained": 9219,
      "portray": 9220,
      "broadcast": 9221,
      "Verma": 9222,
      "Joshi": 9223,
      "temporarily": 9224,
      "deleted": 9225,
      "laundering": 9226,
      "roof": 9227,
      "summoned": 9228,
      "Antarctic": 9229,
      "Lashkar": 9230,
      "Bow": 9231,
      "Bip": 9232,
      "Lou": 9233,
      "Maj": 9234,
      "Many": 9235,
      "Ney": 9236,
      "Wild": 9237,
      "khand": 9238,
      "load": 9239,
      "mir": 9240,
      "rid": 9241,
      "wave": 9242,
      "western": 9243,
      "##kt": 9244,
      "##EF": 9245,
      "##ingh": 9246,
      "##uration": 9247,
      "fort": 9248,
      "##roff": 9249,
      "##istol": 9250,
      "acts": 9251,
      "shape": 9252,
      "shopping": 9253,
      "##enda": 9254,
      "exceed": 9255,
      "##aste": 9256,
      "ups": 9257,
      "trends": 9258,
      "neut": 9259,
      "finance": 9260,
      "defam": 9261,
      "Twenty": 9262,
      "passing": 9263,
      "instal": 9264,
      "##certain": 9265,
      "Direct": 9266,
      "Raman": 9267,
      "salaries": 9268,
      "Bluetooth": 9269,
      "reaches": 9270,
      "edge": 9271,
      "##shit": 9272,
      "smaller": 9273,
      "importance": 9274,
      "DiCap": 9275,
      "positions": 9276,
      "IAS": 9277,
      "CBSE": 9278,
      "shifted": 9279,
      "iconic": 9280,
      "habit": 9281,
      "Victor": 9282,
      "Toyota": 9283,
      "Alphabet": 9284,
      "unanim": 9285,
      "BMC": 9286,
      "Dam": 9287,
      "Has": 9288,
      "Hamilton": 9289,
      "IOC": 9290,
      "NY": 9291,
      "Nike": 9292,
      "Taj": 9293,
      "ka": 9294,
      "lock": 9295,
      "nature": 9296,
      "poverty": 9297,
      "rif": 9298,
      "veteran": 9299,
      "##vo": 9300,
      "##inho": 9301,
      "##onna": 9302,
      "##irts": 9303,
      "alive": 9304,
      "Church": 9305,
      "prank": 9306,
      "Prat": 9307,
      "resemb": 9308,
      "truth": 9309,
      "##icks": 9310,
      "Shroff": 9311,
      "expenditure": 9312,
      "airlines": 9313,
      "buys": 9314,
      "cream": 9315,
      "meat": 9316,
      "##ledge": 9317,
      "Furthermore": 9318,
      "marketplace": 9319,
      "stops": 9320,
      "appears": 9321,
      "threatening": 9322,
      "viewed": 9323,
      "Launched": 9324,
      "Farah": 9325,
      "lift": 9326,
      "feeling": 9327,
      "elev": 9328,
      "Advani": 9329,
      "determin": 9330,
      "pregnancy": 9331,
      "efficient": 9332,
      "Paes": 9333,
      "article": 9334,
      "submarine": 9335,
      "Qualcomm": 9336,
      "greater": 9337,
      "PETA": 9338,
      "DiCaprio": 9339,
      "Jenn": 9340,
      "MD": 9341,
      "Nest": 9342,
      "WC": 9343,
      "bond": 9344,
      "king": 9345,
      "naked": 9346,
      "##ht": 9347,
      "##held": 9348,
      "therap": 9349,
      "##illy": 9350,
      "##icides": 9351,
      "thick": 9352,
      "stump": 9353,
      "stocks": 9354,
      "beautiful": 9355,
      "shall": 9356,
      "except": 9357,
      "chase": 9358,
      "resources": 9359,
      "abled": 9360,
      "script": 9361,
[...]
